{
  "version": "1.0",
  "truncation": null,
  "padding": null,
  "added_tokens": [
    {
      "id": 12480,
      "content": "<unk>",
      "single_word": false,
      "lstrip": false,
      "rstrip": false,
      "normalized": false,
      "special": true
    },
    {
      "id": 12481,
      "content": "<pad>",
      "single_word": false,
      "lstrip": false,
      "rstrip": false,
      "normalized": false,
      "special": true
    },
    {
      "id": 12482,
      "content": "<s>",
      "single_word": false,
      "lstrip": false,
      "rstrip": false,
      "normalized": false,
      "special": true
    },
    {
      "id": 12483,
      "content": "</s>",
      "single_word": false,
      "lstrip": false,
      "rstrip": false,
      "normalized": false,
      "special": true
    }
  ],
  "normalizer": null,
  "pre_tokenizer": {
    "type": "Whitespace"
  },
  "post_processor": null,
  "decoder": null,
  "model": {
    "type": "BPE",
    "dropout": null,
    "unk_token": null,
    "continuing_subword_prefix": null,
    "end_of_word_suffix": null,
    "fuse_unk": false,
    "byte_fallback": false,
    "ignore_merges": false,
    "vocab": {
      ",": 0,
      ".": 1,
      "0": 2,
      "1": 3,
      "2": 4,
      "3": 5,
      "4": 6,
      "5": 7,
      "6": 8,
      "7": 9,
      "8": 10,
      "9": 11,
      "<": 12,
      ">": 13,
      "M": 14,
      "N": 15,
      "U": 16,
      "_": 17,
      "a": 18,
      "b": 19,
      "c": 20,
      "d": 21,
      "e": 22,
      "f": 23,
      "g": 24,
      "h": 25,
      "i": 26,
      "j": 27,
      "k": 28,
      "l": 29,
      "m": 30,
      "n": 31,
      "o": 32,
      "p": 33,
      "q": 34,
      "r": 35,
      "s": 36,
      "t": 37,
      "u": 38,
      "v": 39,
      "w": 40,
      "x": 41,
      "y": 42,
      "z": 43,
      "А": 44,
      "Н": 45,
      "О": 46,
      "Р": 47,
      "С": 48,
      "Ф": 49,
      "Ш": 50,
      "а": 51,
      "б": 52,
      "в": 53,
      "г": 54,
      "д": 55,
      "е": 56,
      "ж": 57,
      "з": 58,
      "и": 59,
      "й": 60,
      "к": 61,
      "л": 62,
      "м": 63,
      "н": 64,
      "о": 65,
      "п": 66,
      "р": 67,
      "с": 68,
      "т": 69,
      "у": 70,
      "ф": 71,
      "х": 72,
      "ц": 73,
      "ч": 74,
      "ш": 75,
      "щ": 76,
      "ъ": 77,
      "ы": 78,
      "ь": 79,
      "э": 80,
      "ю": 81,
      "я": 82,
      "ё": 83,
      "ї": 84,
      "ст": 85,
      "ен": 86,
      "ра": 87,
      "ро": 88,
      "но": 89,
      "ко": 90,
      "ре": 91,
      "по": 92,
      "ан": 93,
      "ал": 94,
      "го": 95,
      "то": 96,
      "ер": 97,
      "во": 98,
      "ет": 99,
      "ит": 100,
      "ин": 101,
      "ел": 102,
      "ил": 103,
      "ны": 104,
      "на": 105,
      "ва": 106,
      "со": 107,
      "ени": 108,
      "ка": 109,
      "ки": 110,
      "за": 111,
      "до": 112,
      "ни": 113,
      "NU": 114,
      "NUM": 115,
      "ри": 116,
      "та": 117,
      "ци": 118,
      "мо": 119,
      "ми": 120,
      "ла": 121,
      "да": 122,
      "про": 123,
      "ся": 124,
      "ру": 125,
      "пре": 126,
      "не": 127,
      "ли": 128,
      "об": 129,
      "ед": 130,
      "ани": 131,
      "от": 132,
      "ей": 133,
      "вы": 134,
      "сс": 135,
      "ло": 136,
      "ма": 137,
      "ти": 138,
      "ть": 139,
      "ест": 140,
      "ско": 141,
      "ви": 142,
      "ель": 143,
      "ем": 144,
      "ду": 145,
      "ку": 146,
      "бо": 147,
      "па": 148,
      "ста": 149,
      "ных": 150,
      "ски": 151,
      "ры": 152,
      "пе": 153,
      "ров": 154,
      "сл": 155,
      "ения": 156,
      "са": 157,
      "из": 158,
      "сти": 159,
      "ча": 160,
      "фо": 161,
      "га": 162,
      "ль": 163,
      "при": 164,
      "ной": 165,
      "ком": 166,
      "ис": 167,
      "те": 168,
      "ме": 169,
      "сто": 170,
      "че": 171,
      "пра": 172,
      "ии": 173,
      "су": 174,
      "ные": 175,
      "де": 176,
      "аль": 177,
      "ве": 178,
      "ции": 179,
      "вл": 180,
      "зи": 181,
      "мер": 182,
      "раз": 183,
      "ить": 184,
      "под": 185,
      "пол": 186,
      "ди": 187,
      "ент": 188,
      "али": 189,
      "ги": 190,
      "вер": 191,
      "му": 192,
      "ек": 193,
      "хо": 194,
      "пу": 195,
      "лю": 196,
      "росс": 197,
      "кон": 198,
      "ение": 199,
      "пред": 200,
      "ты": 201,
      "ного": 202,
      "стра": 203,
      "ну": 204,
      "гра": 205,
      "ря": 206,
      "итель": 207,
      "ту": 208,
      "кото": 209,
      "ба": 210,
      "ий": 211,
      "гла": 212,
      "ется": 213,
      "мин": 214,
      "нов": 215,
      "бе": 216,
      "си": 217,
      "ву": 218,
      "зо": 219,
      "ле": 220,
      "ют": 221,
      "мен": 222,
      "ала": 223,
      "фото": 224,
      "чи": 225,
      "ев": 226,
      "сь": 227,
      "ков": 228,
      "тов": 229,
      "тра": 230,
      "ный": 231,
      "зид": 232,
      "ке": 233,
      "ской": 234,
      "воз": 235,
      "вать": 236,
      "вил": 237,
      "ности": 238,
      "пер": 239,
      "сть": 240,
      "презид": 241,
      "года": 242,
      "это": 243,
      "кра": 244,
      "се": 245,
      "ало": 246,
      "же": 247,
      "дел": 248,
      "ня": 249,
      "сер": 250,
      "сан": 251,
      "жд": 252,
      "сов": 253,
      "жи": 254,
      "общ": 255,
      "ания": 256,
      "кт": 257,
      "един": 258,
      "дол": 259,
      "ши": 260,
      "вед": 261,
      "вой": 262,
      "или": 263,
      "гу": 264,
      "ным": 265,
      "вля": 266,
      "которы": 267,
      "тель": 268,
      "вод": 269,
      "каз": 270,
      "ства": 271,
      "году": 272,
      "дер": 273,
      "ха": 274,
      "ина": 275,
      "мери": 276,
      "бу": 277,
      "пере": 278,
      "кан": 279,
      "яб": 280,
      "уч": 281,
      "жен": 282,
      "вен": 283,
      "пл": 284,
      "ющ": 285,
      "ити": 286,
      "ция": 287,
      "он": 288,
      "ность": 289,
      "ета": 290,
      "вал": 291,
      "жа": 292,
      "ство": 293,
      "единен": 294,
      "бы": 295,
      "род": 296,
      "ита": 297,
      "ского": 298,
      "ном": 299,
      "слу": 300,
      "ром": 301,
      "ских": 302,
      "тер": 303,
      "год": 304,
      "ск": 305,
      "спе": 306,
      "гово": 307,
      "ана": 308,
      "так": 309,
      "мини": 310,
      "иль": 311,
      "ский": 312,
      "од": 313,
      "сло": 314,
      "ера": 315,
      "фи": 316,
      "ание": 317,
      "россии": 318,
      "пор": 319,
      "сте": 320,
      "мест": 321,
      "сво": 322,
      "сту": 323,
      "трам": 324,
      "сообщ": 325,
      "вла": 326,
      "бли": 327,
      "тив": 328,
      "само": 329,
      "ут": 330,
      "ила": 331,
      "нач": 332,
      "также": 333,
      "окт": 334,
      "лет": 335,
      "мы": 336,
      "рг": 337,
      "став": 338,
      "ля": 339,
      "клю": 340,
      "ень": 341,
      "зая": 342,
      "рий": 343,
      "мит": 344,
      "мил": 345,
      "таты": 346,
      "ении": 347,
      "россий": 348,
      "стро": 349,
      "том": 350,
      "фор": 351,
      "прав": 352,
      "ября": 353,
      "ска": 354,
      "тел": 355,
      "ное": 356,
      "мерики": 357,
      "мет": 358,
      "нич": 359,
      "единенные": 360,
      "Америки": 361,
      "Со": 362,
      "Штаты": 363,
      "дру": 364,
      "Соединенные": 365,
      "бот": 366,
      "вест": 367,
      "ход": 368,
      "президент": 369,
      "ше": 370,
      "эк": 371,
      "ника": 372,
      "нее": 373,
      "ись": 374,
      "би": 375,
      "ная": 376,
      "ша": 377,
      "рем": 378,
      "ител": 379,
      "зу": 380,
      "мед": 381,
      "ред": 382,
      "це": 383,
      "ак": 384,
      "дмит": 385,
      "уча": 386,
      "цию": 387,
      "им": 388,
      "тор": 389,
      "ар": 390,
      "тре": 391,
      "работ": 392,
      "цион": 393,
      "чер": 394,
      "ело": 395,
      "слей": 396,
      "стви": 397,
      "сп": 398,
      "укра": 399,
      "шения": 400,
      "дмитрий": 401,
      "дей": 402,
      "долж": 403,
      "зы": 404,
      "ос": 405,
      "ений": 406,
      "президен": 407,
      "сит": 408,
      "ников": 409,
      "рф": 410,
      "рь": 411,
      "св": 412,
      "ца": 413,
      "рес": 414,
      "объ": 415,
      "дов": 416,
      "алек": 417,
      "газ": 418,
      "зд": 419,
      "ило": 420,
      "ании": 421,
      "ях": 422,
      "ские": 423,
      "ную": 424,
      "тру": 425,
      "емы": 426,
      "пар": 427,
      "сле": 428,
      "комп": 429,
      "пис": 430,
      "ций": 431,
      "стран": 432,
      "пас": 433,
      "украин": 434,
      "пы": 435,
      "ствен": 436,
      "кой": 437,
      "согла": 438,
      "коммер": 439,
      "тур": 440,
      "сант": 441,
      "говор": 442,
      "заявил": 443,
      "экс": 444,
      "наль": 445,
      "ными": 446,
      "соб": 447,
      "коммерсант": 448,
      "коммерсантъ": 449,
      "бан": 450,
      "вто": 451,
      "публи": 452,
      "октября": 453,
      "вел": 454,
      "стре": 455,
      "куп": 456,
      "серб": 457,
      "ды": 458,
      "ился": 459,
      "ген": 460,
      "ору": 461,
      "обла": 462,
      "санд": 463,
      "держ": 464,
      "александ": 465,
      "врем": 466,
      "которые": 467,
      "слова": 468,
      "дональ": 469,
      "правитель": 470,
      "дан": 471,
      "дет": 472,
      "расс": 473,
      "произ": 474,
      "цен": 475,
      "чет": 476,
      "ят": 477,
      "кол": 478,
      "пр": 479,
      "пла": 480,
      "ится": 481,
      "вых": 482,
      "след": 483,
      "полити": 484,
      "ран": 485,
      "ник": 486,
      "сторо": 487,
      "ргани": 488,
      "вин": 489,
      "щи": 490,
      "поль": 491,
      "пера": 492,
      "ках": 493,
      "руб": 494,
      "свя": 495,
      "тр": 496,
      "тин": 497,
      "минист": 498,
      "рганиза": 499,
      "ению": 500,
      "дар": 501,
      "пресс": 502,
      "служ": 503,
      "трампа": 504,
      "слейд": 505,
      "вет": 506,
      "президента": 507,
      "время": 508,
      "er": 509,
      "мож": 510,
      "мир": 511,
      "получ": 512,
      "ща": 513,
      "ена": 514,
      "степ": 515,
      "медвед": 516,
      "вает": 517,
      "ор": 518,
      "фин": 519,
      "чита": 520,
      "помо": 521,
      "ться": 522,
      "вра": 523,
      "воен": 524,
      "ней": 525,
      "бер": 526,
      "дж": 527,
      "мь": 528,
      "ян": 529,
      "але": 530,
      "вопро": 531,
      "обе": 532,
      "едера": 533,
      "форма": 534,
      "труд": 535,
      "зна": 536,
      "мент": 537,
      "опера": 538,
      "шен": 539,
      "изра": 540,
      "полн": 541,
      "стан": 542,
      "ранее": 543,
      "премь": 544,
      "боль": 545,
      "безо": 546,
      "кры": 547,
      "тех": 548,
      "казал": 549,
      "министра": 550,
      "александр": 551,
      "al": 552,
      "нер": 553,
      "пи": 554,
      "пет": 555,
      "сил": 556,
      "ству": 557,
      "правл": 558,
      "милл": 559,
      "купить": 560,
      "безопас": 561,
      "бр": 562,
      "дом": 563,
      "ниц": 564,
      "вый": 565,
      "ским": 566,
      "ключ": 567,
      "ская": 568,
      "други": 569,
      "сел": 570,
      "сек": 571,
      "тро": 572,
      "ью": 573,
      "отмет": 574,
      "am": 575,
      "пал": 576,
      "рас": 577,
      "рабо": 578,
      "поз": 579,
      "сотруд": 580,
      "проек": 581,
      "возмож": 582,
      "порт": 583,
      "области": 584,
      "миллени": 585,
      "нет": 586,
      "рек": 587,
      "госу": 588,
      "логи": 589,
      "извест": 590,
      "уа": 591,
      "стве": 592,
      "ини": 593,
      "народ": 594,
      "ества": 595,
      "ском": 596,
      "ставля": 597,
      "медведев": 598,
      "лен": 599,
      "ман": 600,
      "сет": 601,
      "ун": 602,
      "ям": 603,
      "регу": 604,
      "моск": 605,
      "мас": 606,
      "кую": 607,
      "ад": 608,
      "кру": 609,
      "шта": 610,
      "гос": 611,
      "вол": 612,
      "лож": 613,
      "бов": 614,
      "право": 615,
      "ющи": 616,
      "влади": 617,
      "основ": 618,
      "словам": 619,
      "мн": 620,
      "смо": 621,
      "реги": 622,
      "ением": 623,
      "меж": 624,
      "гражд": 625,
      "одна": 626,
      "встре": 627,
      "она": 628,
      "енко": 629,
      "рой": 630,
      "ине": 631,
      "отно": 632,
      "евро": 633,
      "ших": 634,
      "милли": 635,
      "действи": 636,
      "авто": 637,
      "ге": 638,
      "гру": 639,
      "сем": 640,
      "ровать": 641,
      "голо": 642,
      "наз": 643,
      "сово": 644,
      "кие": 645,
      "душ": 646,
      "стоя": 647,
      "ческой": 648,
      "который": 649,
      "амери": 650,
      "вш": 651,
      "его": 652,
      "сент": 653,
      "точ": 654,
      "информа": 655,
      "дук": 656,
      "рын": 657,
      "приш": 658,
      "росси": 659,
      "объя": 660,
      "el": 661,
      "ур": 662,
      "нова": 663,
      "инте": 664,
      "нивер": 665,
      "циаль": 666,
      "ются": 667,
      "казы": 668,
      "премьер": 669,
      "государ": 670,
      "дель": 671,
      "имо": 672,
      "сы": 673,
      "чень": 674,
      "кам": 675,
      "руко": 676,
      "сколь": 677,
      "чает": 678,
      "разв": 679,
      "алось": 680,
      "ниверсит": 681,
      "бра": 682,
      "бел": 683,
      "счита": 684,
      "хот": 685,
      "цент": 686,
      "явля": 687,
      "стал": 688,
      "каза": 689,
      "рии": 690,
      "поддерж": 691,
      "шо": 692,
      "ены": 693,
      "ких": 694,
      "аний": 695,
      "анию": 696,
      "высту": 697,
      "мента": 698,
      "республи": 699,
      "бл": 700,
      "зани": 701,
      "тю": 702,
      "университ": 703,
      "чест": 704,
      "ств": 705,
      "енных": 706,
      "реш": 707,
      "вого": 708,
      "доба": 709,
      "продук": 710,
      "утвер": 711,
      "дональда": 712,
      "работа": 713,
      "американ": 714,
      "in": 715,
      "дро": 716,
      "ино": 717,
      "спо": 718,
      "рах": 719,
      "ному": 720,
      "коно": 721,
      "ками": 722,
      "ним": 723,
      "ники": 724,
      "лик": 725,
      "ответ": 726,
      "откры": 727,
      "кур": 728,
      "дирек": 729,
      "трамп": 730,
      "пользо": 731,
      "обеспе": 732,
      "брит": 733,
      "an": 734,
      "es": 735,
      "дви": 736,
      "сн": 737,
      "три": 738,
      "федера": 739,
      "рам": 740,
      "рая": 741,
      "кор": 742,
      "косово": 743,
      "иня": 744,
      "вые": 745,
      "изза": 746,
      "глав": 747,
      "глава": 748,
      "буду": 749,
      "ситуа": 750,
      "вели": 751,
      "сербии": 752,
      "администра": 753,
      "вза": 754,
      "вну": 755,
      "зер": 756,
      "кита": 757,
      "чу": 758,
      "щест": 759,
      "мар": 760,
      "рован": 761,
      "сам": 762,
      "суд": 763,
      "конф": 764,
      "представ": 765,
      "тыся": 766,
      "ждения": 767,
      "шим": 768,
      "трен": 769,
      "безопасности": 770,
      "дву": 771,
      "жда": 772,
      "мира": 773,
      "приз": 774,
      "алась": 775,
      "участ": 776,
      "правительства": 777,
      "производ": 778,
      "руковод": 779,
      "аг": 780,
      "организа": 781,
      "сед": 782,
      "сред": 783,
      "торов": 784,
      "созд": 785,
      "нем": 786,
      "обо": 787,
      "дународ": 788,
      "газо": 789,
      "стов": 790,
      "ализа": 791,
      "гранич": 792,
      "полнитель": 793,
      "регули": 794,
      "международ": 795,
      "eg": 796,
      "вклю": 797,
      "лу": 798,
      "нд": 799,
      "скую": 800,
      "ено": 801,
      "кар": 802,
      "рует": 803,
      "тиче": 804,
      "вице": 805,
      "конч": 806,
      "дела": 807,
      "шего": 808,
      "развити": 809,
      "рамках": 810,
      "жиз": 811,
      "жение": 812,
      "кро": 813,
      "кла": 814,
      "нали": 815,
      "сказал": 816,
      "цы": 817,
      "интер": 818,
      "отве": 819,
      "числе": 820,
      "вести": 821,
      "израил": 822,
      "отметил": 823,
      "взаимо": 824,
      "жур": 825,
      "пло": 826,
      "ус": 827,
      "шин": 828,
      "ье": 829,
      "рак": 830,
      "ался": 831,
      "готов": 832,
      "ником": 833,
      "страны": 834,
      "которая": 835,
      "единенных": 836,
      "пыт": 837,
      "сотруднич": 838,
      "является": 839,
      "кре": 840,
      "цер": 841,
      "подо": 842,
      "тора": 843,
      "воору": 844,
      "пара": 845,
      "коман": 846,
      "подпис": 847,
      "сист": 848,
      "циональ": 849,
      "турции": 850,
      "связи": 851,
      "палест": 852,
      "on": 853,
      "бъ": 854,
      "вали": 855,
      "име": 856,
      "сня": 857,
      "тя": 858,
      "щения": 859,
      "аненко": 860,
      "ридо": 861,
      "ему": 862,
      "пад": 863,
      "чая": 864,
      "част": 865,
      "путин": 866,
      "спец": 867,
      "власти": 868,
      "ителей": 869,
      "компании": 870,
      "орд": 871,
      "техно": 872,
      "граждан": 873,
      "сентября": 874,
      "добавил": 875,
      "тысяч": 876,
      "re": 877,
      "вз": 878,
      "вли": 879,
      "исто": 880,
      "эл": 881,
      "энер": 882,
      "коло": 883,
      "ете": 884,
      "замест": 885,
      "заключ": 886,
      "ниче": 887,
      "мой": 888,
      "против": 889,
      "несколь": 890,
      "пуст": 891,
      "воздуш": 892,
      "генера": 893,
      "степаненко": 894,
      "администрации": 895,
      "регулиров": 896,
      "журнали": 897,
      "st": 898,
      "зан": 899,
      "офи": 900,
      "очень": 901,
      "фа": 902,
      "стру": 903,
      "ремен": 904,
      "потре": 905,
      "алы": 906,
      "ались": 907,
      "това": 908,
      "еты": 909,
      "мов": 910,
      "прово": 911,
      "него": 912,
      "лич": 913,
      "разо": 914,
      "седа": 915,
      "перегово": 916,
      "другие": 917,
      "внутрен": 918,
      "ic": 919,
      "ma": 920,
      "me": 921,
      "бен": 922,
      "биль": 923,
      "мл": 924,
      "чело": 925,
      "юмо": 926,
      "яти": 927,
      "кого": 928,
      "поя": 929,
      "поли": 930,
      "тон": 931,
      "ились": 932,
      "наход": 933,
      "националь": 934,
      "миридо": 935,
      "обвин": 936,
      "муж": 937,
      "люд": 938,
      "которо": 939,
      "новкупить": 940,
      "гут": 941,
      "плани": 942,
      "ступ": 943,
      "челове": 944,
      "миридоновкупить": 945,
      "На": 946,
      "Организа": 947,
      "Объ": 948,
      "бело": 949,
      "вание": 950,
      "гер": 951,
      "ден": 952,
      "ожи": 953,
      "сб": 954,
      "уда": 955,
      "цел": 956,
      "цев": 957,
      "эр": 958,
      "ела": 959,
      "запре": 960,
      "провод": 961,
      "неф": 962,
      "вым": 963,
      "выбо": 964,
      "сущест": 965,
      "председа": 966,
      "бай": 967,
      "вучи": 968,
      "возгла": 969,
      "дело": 970,
      "строитель": 971,
      "должность": 972,
      "четвер": 973,
      "министр": 974,
      "щая": 975,
      "обеспеч": 976,
      "конфлик": 977,
      "Наций": 978,
      "Организация": 979,
      "Объединенных": 980,
      "вучич": 981,
      "ави": 982,
      "бла": 983,
      "жения": 984,
      "зда": 985,
      "ию": 986,
      "лей": 987,
      "чь": 988,
      "шла": 989,
      "дости": 990,
      "ние": 991,
      "просто": 992,
      "бом": 993,
      "разработ": 994,
      "первый": 995,
      "совета": 996,
      "женщ": 997,
      "случа": 998,
      "актив": 999,
      "приня": 1000,
      "прессслуж": 1001,
      "финан": 1002,
      "москва": 1003,
      "владимир": 1004,
      "однако": 1005,
      "аза": 1006,
      "вне": 1007,
      "гро": 1008,
      "ева": 1009,
      "жест": 1010,
      "пря": 1011,
      "сме": 1012,
      "фун": 1013,
      "шест": 1014,
      "рода": 1015,
      "нор": 1016,
      "послед": 1017,
      "топ": 1018,
      "важ": 1019,
      "рито": 1020,
      "моло": 1021,
      "мошен": 1022,
      "меры": 1023,
      "иться": 1024,
      "полня": 1025,
      "контро": 1026,
      "вую": 1027,
      "которых": 1028,
      "хамас": 1029,
      "свобо": 1030,
      "произо": 1031,
      "тюрь": 1032,
      "ав": 1033,
      "ван": 1034,
      "вмест": 1035,
      "дь": 1036,
      "сре": 1037,
      "сла": 1038,
      "ую": 1039,
      "фе": 1040,
      "шь": 1041,
      "шение": 1042,
      "эконо": 1043,
      "пов": 1044,
      "ний": 1045,
      "обя": 1046,
      "обра": 1047,
      "виде": 1048,
      "права": 1049,
      "правил": 1050,
      "вление": 1051,
      "предпо": 1052,
      "грам": 1053,
      "ряд": 1054,
      "первой": 1055,
      "шие": 1056,
      "террито": 1057,
      "сообщил": 1058,
      "украины": 1059,
      "получил": 1060,
      "степень": 1061,
      "помощ": 1062,
      "интерес": 1063,
      "иностран": 1064,
      "федераль": 1065,
      "двух": 1066,
      "агент": 1067,
      "имеет": 1068,
      "азаров": 1069,
      "экономи": 1070,
      "бло": 1071,
      "гии": 1072,
      "день": 1073,
      "кси": 1074,
      "тей": 1075,
      "уров": 1076,
      "управл": 1077,
      "шут": 1078,
      "щий": 1079,
      "ыду": 1080,
      "юри": 1081,
      "реализа": 1082,
      "поста": 1083,
      "тором": 1084,
      "вом": 1085,
      "елен": 1086,
      "вая": 1087,
      "ката": 1088,
      "мии": 1089,
      "проти": 1090,
      "простран": 1091,
      "програм": 1092,
      "бой": 1093,
      "газа": 1094,
      "предыду": 1095,
      "алов": 1096,
      "плана": 1097,
      "илась": 1098,
      "никами": 1099,
      "ители": 1100,
      "арти": 1101,
      "соглашения": 1102,
      "плат": 1103,
      "вший": 1104,
      "будут": 1105,
      "he": 1106,
      "всу": 1107,
      "ее": 1108,
      "иц": 1109,
      "ог": 1110,
      "ох": 1111,
      "ссо": 1112,
      "рей": 1113,
      "ите": 1114,
      "иты": 1115,
      "нами": 1116,
      "назы": 1117,
      "вай": 1118,
      "ким": 1119,
      "зам": 1120,
      "закон": 1121,
      "момент": 1122,
      "могут": 1123,
      "лага": 1124,
      "ское": 1125,
      "стар": 1126,
      "разу": 1127,
      "систе": 1128,
      "крат": 1129,
      "ябре": 1130,
      "бира": 1131,
      "участво": 1132,
      "парти": 1133,
      "данным": 1134,
      "стороны": 1135,
      "россией": 1136,
      "занима": 1137,
      "оборо": 1138,
      "жизни": 1139,
      "взаимодействи": 1140,
      "палестин": 1141,
      "технологи": 1142,
      "знач": 1143,
      "кин": 1144,
      "кну": 1145,
      "кту": 1146,
      "лета": 1147,
      "оче": 1148,
      "оконч": 1149,
      "сро": 1150,
      "сно": 1151,
      "урегулиров": 1152,
      "коорд": 1153,
      "пози": 1154,
      "анти": 1155,
      "ализ": 1156,
      "нару": 1157,
      "вается": 1158,
      "вают": 1159,
      "ватель": 1160,
      "кад": 1161,
      "мисс": 1162,
      "образо": 1163,
      "матер": 1164,
      "куль": 1165,
      "прич": 1166,
      "прияти": 1167,
      "подчер": 1168,
      "ледов": 1169,
      "возра": 1170,
      "ющий": 1171,
      "свои": 1172,
      "спи": 1173,
      "господ": 1174,
      "ющие": 1175,
      "региона": 1176,
      "белгра": 1177,
      "включая": 1178,
      "четверг": 1179,
      "co": 1180,
      "lo": 1181,
      "ram": 1182,
      "бю": 1183,
      "гли": 1184,
      "имен": 1185,
      "кр": 1186,
      "лся": 1187,
      "нк": 1188,
      "оне": 1189,
      "огранич": 1190,
      "освобо": 1191,
      "фф": 1192,
      "шло": 1193,
      "пост": 1194,
      "пора": 1195,
      "нато": 1196,
      "направл": 1197,
      "кий": 1198,
      "завер": 1199,
      "мони": 1200,
      "вид": 1201,
      "самы": 1202,
      "подро": 1203,
      "представля": 1204,
      "граф": 1205,
      "главы": 1206,
      "дели": 1207,
      "совет": 1208,
      "план": 1209,
      "ностью": 1210,
      "слейда": 1211,
      "слева": 1212,
      "министер": 1213,
      "вопросам": 1214,
      "израиль": 1215,
      "большо": 1216,
      "возможно": 1217,
      "зербай": 1218,
      "iv": 1219,
      "бин": 1220,
      "джа": 1221,
      "зелен": 1222,
      "кала": 1223,
      "лин": 1224,
      "оста": 1225,
      "ху": 1226,
      "шел": 1227,
      "стало": 1228,
      "рай": 1229,
      "реа": 1230,
      "ток": 1231,
      "иту": 1232,
      "совер": 1233,
      "дома": 1234,
      "циф": 1235,
      "анием": 1236,
      "отме": 1237,
      "матри": 1238,
      "ческих": 1239,
      "развед": 1240,
      "ительно": 1241,
      "севе": 1242,
      "быв": 1243,
      "своей": 1244,
      "российской": 1245,
      "парт": 1246,
      "сторон": 1247,
      "рублей": 1248,
      "позвол": 1249,
      "миллениалы": 1250,
      "ситуации": 1251,
      "отвечает": 1252,
      "авиа": 1253,
      "зербайдж": 1254,
      "di": 1255,
      "бро": 1256,
      "ив": 1257,
      "лан": 1258,
      "тем": 1259,
      "чение": 1260,
      "ями": 1261,
      "ятель": 1262,
      "пом": 1263,
      "постав": 1264,
      "той": 1265,
      "ету": 1266,
      "инф": 1267,
      "сом": 1268,
      "изд": 1269,
      "исполнитель": 1270,
      "предлож": 1271,
      "туре": 1272,
      "бакала": 1273,
      "сегод": 1274,
      "сербов": 1275,
      "держи": 1276,
      "ством": 1277,
      "терро": 1278,
      "самолет": 1279,
      "шая": 1280,
      "медиц": 1281,
      "червин": 1282,
      "президентом": 1283,
      "приштин": 1284,
      "выступа": 1285,
      "директор": 1286,
      "системы": 1287,
      "видео": 1288,
      "интересы": 1289,
      "юриди": 1290,
      "предыдущая": 1291,
      "матери": 1292,
      "сегодня": 1293,
      "ат": 1294,
      "азербайдж": 1295,
      "вс": 1296,
      "еги": 1297,
      "йти": 1298,
      "ню": 1299,
      "нил": 1300,
      "рд": 1301,
      "рман": 1302,
      "чной": 1303,
      "сты": 1304,
      "стей": 1305,
      "енные": 1306,
      "кое": 1307,
      "ины": 1308,
      "напис": 1309,
      "защ": 1310,
      "мом": 1311,
      "продолж": 1312,
      "сят": 1313,
      "лиц": 1314,
      "бор": 1315,
      "чается": 1316,
      "ческие": 1317,
      "сут": 1318,
      "вления": 1319,
      "мурман": 1320,
      "ледо": 1321,
      "меня": 1322,
      "серви": 1323,
      "совмест": 1324,
      "фика": 1325,
      "должны": 1326,
      "газпро": 1327,
      "экспер": 1328,
      "оружи": 1329,
      "дональд": 1330,
      "связ": 1331,
      "ницу": 1332,
      "секре": 1333,
      "автомо": 1334,
      "груп": 1335,
      "китай": 1336,
      "кроме": 1337,
      "потреб": 1338,
      "благода": 1339,
      "подчеркну": 1340,
      "ar": 1341,
      "tel": 1342,
      "Ро": 1343,
      "Федера": 1344,
      "ам": 1345,
      "ата": 1346,
      "вно": 1347,
      "жел": 1348,
      "зе": 1349,
      "мно": 1350,
      "сдел": 1351,
      "тво": 1352,
      "уз": 1353,
      "шли": 1354,
      "щей": 1355,
      "эфф": 1356,
      "резо": 1357,
      "помн": 1358,
      "илот": 1359,
      "над": 1360,
      "каж": 1361,
      "док": 1362,
      "нима": 1363,
      "такие": 1364,
      "цией": 1365,
      "модель": 1366,
      "выполня": 1367,
      "ссий": 1368,
      "фору": 1369,
      "использо": 1370,
      "деятель": 1371,
      "ально": 1372,
      "хода": 1373,
      "нуж": 1374,
      "лег": 1375,
      "тран": 1376,
      "деле": 1377,
      "тельства": 1378,
      "вался": 1379,
      "российского": 1380,
      "российских": 1381,
      "российские": 1382,
      "теле": 1383,
      "участи": 1384,
      "илось": 1385,
      "политики": 1386,
      "пользу": 1387,
      "ствует": 1388,
      "известно": 1389,
      "сети": 1390,
      "смот": 1391,
      "рынке": 1392,
      "британ": 1393,
      "egram": 1394,
      "сотрудничества": 1395,
      "конфликта": 1396,
      "топли": 1397,
      "графии": 1398,
      "червинский": 1399,
      "telegram": 1400,
      "Россий": 1401,
      "Федерация": 1402,
      "эффек": 1403,
      "Российская": 1404,
      "en": 1405,
      "the": 1406,
      "ut": 1407,
      "ап": 1408,
      "аэ": 1409,
      "бед": 1410,
      "зало": 1411,
      "ито": 1412,
      "онов": 1413,
      "уточ": 1414,
      "шей": 1415,
      "щение": 1416,
      "ять": 1417,
      "номо": 1418,
      "резу": 1419,
      "поч": 1420,
      "посред": 1421,
      "вов": 1422,
      "вател": 1423,
      "вашин": 1424,
      "сок": 1425,
      "соц": 1426,
      "соответ": 1427,
      "зави": 1428,
      "засед": 1429,
      "запад": 1430,
      "доро": 1431,
      "дово": 1432,
      "доку": 1433,
      "миха": 1434,
      "прос": 1435,
      "пробл": 1436,
      "оте": 1437,
      "высо": 1438,
      "скими": 1439,
      "ровали": 1440,
      "фон": 1441,
      "льта": 1442,
      "пример": 1443,
      "правля": 1444,
      "ходи": 1445,
      "люди": 1446,
      "ваться": 1447,
      "север": 1448,
      "жды": 1449,
      "переда": 1450,
      "быти": 1451,
      "специаль": 1452,
      "сообщении": 1453,
      "ляр": 1454,
      "публиков": 1455,
      "отнош": 1456,
      "информации": 1457,
      "организации": 1458,
      "влия": 1459,
      "обяза": 1460,
      "противо": 1461,
      "подроб": 1462,
      "резолю": 1463,
      "вашинг": 1464,
      "or": 1465,
      "акт": 1466,
      "бал": 1467,
      "дней": 1468,
      "ес": 1469,
      "мал": 1470,
      "особ": 1471,
      "рко": 1472,
      "тан": 1473,
      "твер": 1474,
      "филь": 1475,
      "хе": 1476,
      "хи": 1477,
      "чения": 1478,
      "эта": 1479,
      "эти": 1480,
      "рося": 1481,
      "режи": 1482,
      "решения": 1483,
      "покол": 1484,
      "аны": 1485,
      "восто": 1486,
      "инга": 1487,
      "проку": 1488,
      "продол": 1489,
      "преду": 1490,
      "лиде": 1491,
      "лидер": 1492,
      "маун": 1493,
      "борь": 1494,
      "рыв": 1495,
      "ровал": 1496,
      "сай": 1497,
      "сами": 1498,
      "иску": 1499,
      "течение": 1500,
      "мето": 1501,
      "ческого": 1502,
      "пунк": 1503,
      "предприяти": 1504,
      "которой": 1505,
      "баро": 1506,
      "пери": 1507,
      "этому": 1508,
      "долго": 1509,
      "веду": 1510,
      "родился": 1511,
      "сообщили": 1512,
      "ствие": 1513,
      "компаний": 1514,
      "петрося": 1515,
      "селха": 1516,
      "ющих": 1517,
      "хотя": 1518,
      "центра": 1519,
      "республики": 1520,
      "утвержд": 1521,
      "вицепремьер": 1522,
      "интернет": 1523,
      "структу": 1524,
      "планиру": 1525,
      "вместе": 1526,
      "окончил": 1527,
      "крити": 1528,
      "турец": 1529,
      "террори": 1530,
      "выступает": 1531,
      "маунселха": 1532,
      "ok": 1533,
      "ra": 1534,
      "бил": 1535,
      "бпла": 1536,
      "кти": 1537,
      "пти": 1538,
      "силь": 1539,
      "сена": 1540,
      "тен": 1541,
      "тина": 1542,
      "чно": 1543,
      "чных": 1544,
      "шки": 1545,
      "ьше": 1546,
      "енности": 1547,
      "рав": 1548,
      "постро": 1549,
      "вос": 1550,
      "событи": 1551,
      "договор": 1552,
      "ница": 1553,
      "рия": 1554,
      "логии": 1555,
      "меся": 1556,
      "вле": 1557,
      "подготов": 1558,
      "дида": 1559,
      "муни": 1560,
      "хов": 1561,
      "сия": 1562,
      "ведение": 1563,
      "кандида": 1564,
      "одним": 1565,
      "самое": 1566,
      "ключе": 1567,
      "российский": 1568,
      "теля": 1569,
      "объек": 1570,
      "емых": 1571,
      "парла": 1572,
      "согласно": 1573,
      "говорил": 1574,
      "четы": 1575,
      "миллениалов": 1576,
      "голов": 1577,
      "университета": 1578,
      "дронов": 1579,
      "способ": 1580,
      "развития": 1581,
      "израилем": 1582,
      "заместител": 1583,
      "несколько": 1584,
      "генераль": 1585,
      "млн": 1586,
      "запрет": 1587,
      "именно": 1588,
      "реаги": 1589,
      "амми": 1590,
      "смотря": 1591,
      "telegramкан": 1592,
      "аппара": 1593,
      "залож": 1594,
      "продолжа": 1595,
      "ch": 1596,
      "ion": 1597,
      "биз": 1598,
      "дал": 1599,
      "дали": 1600,
      "ех": 1601,
      "игра": 1602,
      "кине": 1603,
      "мало": 1604,
      "около": 1605,
      "сни": 1606,
      "спор": 1607,
      "сби": 1608,
      "уса": 1609,
      "устро": 1610,
      "шка": 1611,
      "ья": 1612,
      "стали": 1613,
      "роли": 1614,
      "роде": 1615,
      "ново": 1616,
      "новой": 1617,
      "новых": 1618,
      "рез": 1619,
      "ресс": 1620,
      "попыт": 1621,
      "албан": 1622,
      "воля": 1623,
      "наде": 1624,
      "напря": 1625,
      "сове": 1626,
      "созда": 1627,
      "кая": 1628,
      "кибер": 1629,
      "дополнитель": 1630,
      "мощ": 1631,
      "лай": 1632,
      "лась": 1633,
      "проис": 1634,
      "предо": 1635,
      "еду": 1636,
      "ложен": 1637,
      "дума": 1638,
      "рования": 1639,
      "часть": 1640,
      "ганов": 1641,
      "альные": 1642,
      "полу": 1643,
      "ектро": 1644,
      "ительных": 1645,
      "туры": 1646,
      "без": 1647,
      "годах": 1648,
      "обще": 1649,
      "ведения": 1650,
      "ющего": 1651,
      "роман": 1652,
      "ильха": 1653,
      "форми": 1654,
      "работал": 1655,
      "ционной": 1656,
      "экспресс": 1657,
      "экспорт": 1658,
      "собствен": 1659,
      "банка": 1660,
      "отношения": 1661,
      "рынка": 1662,
      "интере": 1663,
      "государства": 1664,
      "государствен": 1665,
      "считает": 1666,
      "университете": 1667,
      "пользовател": 1668,
      "вооружен": 1669,
      "электро": 1670,
      "председатель": 1671,
      "очеред": 1672,
      "позволит": 1673,
      "бакалавра": 1674,
      "результа": 1675,
      "аммиа": 1676,
      "бизне": 1677,
      "az": 1678,
      "вала": 1679,
      "все": 1680,
      "вания": 1681,
      "глу": 1682,
      "дис": 1683,
      "кри": 1684,
      "кред": 1685,
      "много": 1686,
      "нал": 1687,
      "пей": 1688,
      "сми": 1689,
      "сило": 1690,
      "справо": 1691,
      "увер": 1692,
      "шу": 1693,
      "ший": 1694,
      "щего": 1695,
      "стана": 1696,
      "енно": 1697,
      "ента": 1698,
      "коро": 1699,
      "кобы": 1700,
      "рев": 1701,
      "посел": 1702,
      "гов": 1703,
      "гото": 1704,
      "город": 1705,
      "города": 1706,
      "ербу": 1707,
      "вообще": 1708,
      "ети": 1709,
      "сою": 1710,
      "состоя": 1711,
      "доб": 1712,
      "циа": 1713,
      "мире": 1714,
      "рую": 1715,
      "некоторые": 1716,
      "обы": 1717,
      "лось": 1718,
      "вич": 1719,
      "бое": 1720,
      "боро": 1721,
      "боле": 1722,
      "стать": 1723,
      "стабиль": 1724,
      "коммента": 1725,
      "использу": 1726,
      "меров": 1727,
      "стоит": 1728,
      "десят": 1729,
      "альных": 1730,
      "хоз": 1731,
      "люб": 1732,
      "страте": 1733,
      "сим": 1734,
      "годы": 1735,
      "скры": 1736,
      "одно": 1737,
      "трампом": 1738,
      "самой": 1739,
      "заявля": 1740,
      "ходит": 1741,
      "ционных": 1742,
      "турция": 1743,
      "говорится": 1744,
      "соблюд": 1745,
      "александра": 1746,
      "расследов": 1747,
      "берму": 1748,
      "петербу": 1749,
      "позволя": 1750,
      "штаб": 1751,
      "семь": 1752,
      "назнач": 1753,
      "премьерминистр": 1754,
      "поддержку": 1755,
      "продуктов": 1756,
      "израиля": 1757,
      "частности": 1758,
      "заместитель": 1759,
      "появил": 1760,
      "мужч": 1761,
      "человек": 1762,
      "белого": 1763,
      "женщина": 1764,
      "прессслужба": 1765,
      "авгу": 1766,
      "предполага": 1767,
      "территории": 1768,
      "реализации": 1769,
      "артист": 1770,
      "платфор": 1771,
      "список": 1772,
      "com": 1773,
      "нужно": 1774,
      "михаил": 1775,
      "четыре": 1776,
      "справоч": 1777,
      "ag": 1778,
      "it": 1779,
      "ls": 1780,
      "sh": 1781,
      "бри": 1782,
      "вью": 1783,
      "дня": 1784,
      "зем": 1785,
      "кс": 1786,
      "лы": 1787,
      "нь": 1788,
      "ой": 1789,
      "ом": 1790,
      "пала": 1791,
      "сви": 1792,
      "скан": 1793,
      "усло": 1794,
      "член": 1795,
      "роль": 1796,
      "пож": 1797,
      "поку": 1798,
      "ват": 1799,
      "сол": 1800,
      "сор": 1801,
      "качест": 1802,
      "задерж": 1803,
      "нии": 1804,
      "мигра": 1805,
      "дают": 1806,
      "необ": 1807,
      "несмотря": 1808,
      "обсу": 1809,
      "выраз": 1810,
      "выпу": 1811,
      "мато": 1812,
      "виз": 1813,
      "станов": 1814,
      "суль": 1815,
      "деб": 1816,
      "альной": 1817,
      "альян": 1818,
      "ведом": 1819,
      "поддержи": 1820,
      "подтвер": 1821,
      "верну": 1822,
      "музы": 1823,
      "пута": 1824,
      "конг": 1825,
      "контра": 1826,
      "мина": 1827,
      "бесп": 1828,
      "первую": 1829,
      "должен": 1830,
      "губер": 1831,
      "ющей": 1832,
      "порту": 1833,
      "био": 1834,
      "банков": 1835,
      "проект": 1836,
      "круп": 1837,
      "точно": 1838,
      "камп": 1839,
      "представители": 1840,
      "создание": 1841,
      "энерго": 1842,
      "заня": 1843,
      "переговоры": 1844,
      "юмори": 1845,
      "национальной": 1846,
      "которое": 1847,
      "нефте": 1848,
      "функ": 1849,
      "среди": 1850,
      "иностранных": 1851,
      "азаровкупить": 1852,
      "система": 1853,
      "занимается": 1854,
      "технологий": 1855,
      "большое": 1856,
      "нюю": 1857,
      "секрета": 1858,
      "подчеркнул": 1859,
      "многи": 1860,
      "соцсет": 1861,
      "беспилот": 1862,
      "et": 1863,
      "fiv": 1864,
      "leg": 1865,
      "of": 1866,
      "vi": 1867,
      "wel": 1868,
      "ари": 1869,
      "гей": 1870,
      "гля": 1871,
      "жении": 1872,
      "кло": 1873,
      "осущест": 1874,
      "опубликов": 1875,
      "пят": 1876,
      "рю": 1877,
      "сила": 1878,
      "усил": 1879,
      "управля": 1880,
      "фест": 1881,
      "что": 1882,
      "чный": 1883,
      "ще": 1884,
      "якобы": 1885,
      "нос": 1886,
      "новые": 1887,
      "попу": 1888,
      "посе": 1889,
      "позд": 1890,
      "анал": 1891,
      "ели": 1892,
      "нам": 1893,
      "наслед": 1894,
      "наших": 1895,
      "нарко": 1896,
      "вар": 1897,
      "вами": 1898,
      "кино": 1899,
      "законо": 1900,
      "лад": 1901,
      "дать": 1902,
      "провозгла": 1903,
      "руют": 1904,
      "превра": 1905,
      "нев": 1906,
      "незакон": 1907,
      "лиш": 1908,
      "обмен": 1909,
      "отсут": 1910,
      "выми": 1911,
      "лом": 1912,
      "пес": 1913,
      "рование": 1914,
      "слы": 1915,
      "измен": 1916,
      "ческий": 1917,
      "влен": 1918,
      "ходе": 1919,
      "людей": 1920,
      "конкур": 1921,
      "контей": 1922,
      "бар": 1923,
      "вуд": 1924,
      "товал": 1925,
      "долла": 1926,
      "войны": 1927,
      "ющим": 1928,
      "итар": 1929,
      "специ": 1930,
      "слов": 1931,
      "фикси": 1932,
      "сообща": 1933,
      "тивных": 1934,
      "самопровозгла": 1935,
      "начала": 1936,
      "друго": 1937,
      "зумеров": 1938,
      "газе": 1939,
      "банк": 1940,
      "второй": 1941,
      "рассказ": 1942,
      "следу": 1943,
      "раньше": 1944,
      "финля": 1945,
      "вопросы": 1946,
      "операции": 1947,
      "станет": 1948,
      "секто": 1949,
      "владимира": 1950,
      "мнению": 1951,
      "назвал": 1952,
      "чествен": 1953,
      "решил": 1954,
      "утвержда": 1955,
      "федерации": 1956,
      "косовоалбан": 1957,
      "участников": 1958,
      "газопрово": 1959,
      "развитие": 1960,
      "интервью": 1961,
      "сотрудничест": 1962,
      "которого": 1963,
      "сбк": 1964,
      "возглавля": 1965,
      "финансо": 1966,
      "белград": 1967,
      "приштины": 1968,
      "азербайджан": 1969,
      "кажется": 1970,
      "форума": 1971,
      "отечествен": 1972,
      "вашингтон": 1973,
      "искус": 1974,
      "заложников": 1975,
      "кинемато": 1976,
      "экспрессгаз": 1977,
      "бермуд": 1978,
      "услови": 1979,
      "нефтепродуктов": 1980,
      "five": 1981,
      "wells": 1982,
      "самопровозглашен": 1983,
      "la": 1984,
      "ti": 1985,
      "аб": 1986,
      "амира": 1987,
      "вним": 1988,
      "вшим": 1989,
      "времен": 1990,
      "ванием": 1991,
      "гда": 1992,
      "кал": 1993,
      "кни": 1994,
      "оз": 1995,
      "оде": 1996,
      "оказы": 1997,
      "пен": 1998,
      "сматри": 1999,
      "уго": 2000,
      "угро": 2001,
      "уголов": 2002,
      "фло": 2003,
      "хии": 2004,
      "цей": 2005,
      "цело": 2006,
      "эт": 2007,
      "рами": 2008,
      "рос": 2009,
      "кобрит": 2010,
      "пожа": 2011,
      "анный": 2012,
      "торы": 2013,
      "инци": 2014,
      "инвести": 2015,
      "наза": 2016,
      "настоя": 2017,
      "вари": 2018,
      "каб": 2019,
      "защи": 2020,
      "них": 2021,
      "нике": 2022,
      "мон": 2023,
      "лись": 2024,
      "выя": 2025,
      "сса": 2026,
      "матиче": 2027,
      "сков": 2028,
      "стам": 2029,
      "певи": 2030,
      "гам": 2031,
      "комен": 2032,
      "мере": 2033,
      "мую": 2034,
      "путина": 2035,
      "любов": 2036,
      "конца": 2037,
      "предложен": 2038,
      "бес": 2039,
      "сергей": 2040,
      "ждение": 2041,
      "держа": 2042,
      "ствовать": 2043,
      "ступл": 2044,
      "шее": 2045,
      "зумеры": 2046,
      "ствии": 2047,
      "цами": 2048,
      "объем": 2049,
      "украине": 2050,
      "ятся": 2051,
      "получила": 2052,
      "помощи": 2053,
      "ницы": 2054,
      "других": 2055,
      "расши": 2056,
      "европей": 2057,
      "миллиар": 2058,
      "миллиона": 2059,
      "голосов": 2060,
      "объясн": 2061,
      "республикан": 2062,
      "американский": 2063,
      "открыти": 2064,
      "великобрит": 2065,
      "марта": 2066,
      "призн": 2067,
      "подоз": 2068,
      "истории": 2069,
      "воздушного": 2070,
      "официаль": 2071,
      "запрещ": 2072,
      "июня": 2073,
      "смеш": 2074,
      "фунтов": 2075,
      "партии": 2076,
      "координи": 2077,
      "культуры": 2078,
      "совершен": 2079,
      "партне": 2080,
      "издание": 2081,
      "оружия": 2082,
      "транс": 2083,
      "эффектив": 2084,
      "аэс": 2085,
      "уточнил": 2086,
      "соответству": 2087,
      "доволь": 2088,
      "обязательства": 2089,
      "подробнее": 2090,
      "маунселхаус": 2091,
      "усадь": 2092,
      "кибермошен": 2093,
      "хозя": 2094,
      "петербург": 2095,
      "губерна": 2096,
      "флори": 2097,
      "ap": 2098,
      "at": 2099,
      "ce": 2100,
      "pa": 2101,
      "аген": 2102,
      "вшего": 2103,
      "даль": 2104,
      "еж": 2105,
      "жал": 2106,
      "исс": 2107,
      "ивал": 2108,
      "лек": 2109,
      "ов": 2110,
      "они": 2111,
      "окру": 2112,
      "пво": 2113,
      "сей": 2114,
      "фак": 2115,
      "чит": 2116,
      "чей": 2117,
      "стала": 2118,
      "раба": 2119,
      "раструкту": 2120,
      "англи": 2121,
      "вок": 2122,
      "восп": 2123,
      "ину": 2124,
      "наб": 2125,
      "сох": 2126,
      "социаль": 2127,
      "карь": 2128,
      "зафикси": 2129,
      "доров": 2130,
      "нице": 2131,
      "риса": 2132,
      "мог": 2133,
      "недо": 2134,
      "личи": 2135,
      "анией": 2136,
      "выполн": 2137,
      "боли": 2138,
      "рыва": 2139,
      "ениями": 2140,
      "сама": 2141,
      "комит": 2142,
      "исче": 2143,
      "тек": 2144,
      "стом": 2145,
      "стоян": 2146,
      "сур": 2147,
      "суста": 2148,
      "подрыв": 2149,
      "тый": 2150,
      "зор": 2151,
      "евра": 2152,
      "первого": 2153,
      "плуа": 2154,
      "циями": 2155,
      "онлай": 2156,
      "вались": 2157,
      "жай": 2158,
      "анаста": 2159,
      "одной": 2160,
      "своем": 2161,
      "самолета": 2162,
      "мыш": 2163,
      "телей": 2164,
      "метров": 2165,
      "треть": 2166,
      "треуго": 2167,
      "должно": 2168,
      "согласов": 2169,
      "соглашение": 2170,
      "говорит": 2171,
      "эксплуа": 2172,
      "правительство": 2173,
      "детей": 2174,
      "рассказы": 2175,
      "политиче": 2176,
      "писа": 2177,
      "проекта": 2178,
      "проектов": 2179,
      "возможность": 2180,
      "логисти": 2181,
      "европы": 2182,
      "миллионов": 2183,
      "семей": 2184,
      "сентябре": 2185,
      "россиян": 2186,
      "объявил": 2187,
      "новак": 2188,
      "хотел": 2189,
      "выступл": 2190,
      "тюрем": 2191,
      "продукции": 2192,
      "обеспечи": 2193,
      "движ": 2194,
      "представителей": 2195,
      "включает": 2196,
      "усили": 2197,
      "подоб": 2198,
      "нескольких": 2199,
      "журналистам": 2200,
      "переговорах": 2201,
      "mag": 2202,
      "герм": 2203,
      "ожид": 2204,
      "шесть": 2205,
      "произошла": 2206,
      "агентства": 2207,
      "катастро": 2208,
      "огня": 2209,
      "охран": 2210,
      "зампред": 2211,
      "обороны": 2212,
      "взаимодействие": 2213,
      "координа": 2214,
      "ализи": 2215,
      "возрасте": 2216,
      "господина": 2217,
      "бюдж": 2218,
      "монитор": 2219,
      "зеленский": 2220,
      "цифро": 2221,
      "инфраструкту": 2222,
      "материале": 2223,
      "фикации": 2224,
      "автомобиль": 2225,
      "топлива": 2226,
      "зависи": 2227,
      "прокуро": 2228,
      "предусматри": 2229,
      "муници": 2230,
      "реагировать": 2231,
      "кредит": 2232,
      "необходи": 2233,
      "legion": 2234,
      "популяр": 2235,
      "секторе": 2236,
      "рабаты": 2237,
      "исчез": 2238,
      "треуголь": 2239,
      "эксплуата": 2240,
      "ne": 2241,
      "ro": 2242,
      "апре": 2243,
      "атом": 2244,
      "вших": 2245,
      "гал": 2246,
      "дра": 2247,
      "ец": 2248,
      "ими": 2249,
      "маль": 2250,
      "нала": 2251,
      "осо": 2252,
      "пру": 2253,
      "рение": 2254,
      "сф": 2255,
      "сбу": 2256,
      "справа": 2257,
      "титу": 2258,
      "фрод": 2259,
      "фут": 2260,
      "шко": 2261,
      "шем": 2262,
      "ыватель": 2263,
      "эко": 2264,
      "стри": 2265,
      "енными": 2266,
      "роз": 2267,
      "родо": 2268,
      "новый": 2269,
      "косов": 2270,
      "ремони": 2271,
      "рекомен": 2272,
      "пору": 2273,
      "постоян": 2274,
      "анд": 2275,
      "анбе": 2276,
      "говари": 2277,
      "илет": 2278,
      "наши": 2279,
      "напомн": 2280,
      "например": 2281,
      "софи": 2282,
      "затем": 2283,
      "тая": 2284,
      "такое": 2285,
      "миро": 2286,
      "русс": 2287,
      "лишь": 2288,
      "выпуст": 2289,
      "маги": 2290,
      "дут": 2291,
      "печа": 2292,
      "чай": 2293,
      "часто": 2294,
      "привле": 2295,
      "исключ": 2296,
      "меч": 2297,
      "прапра": 2298,
      "супру": 2299,
      "деву": 2300,
      "хоро": 2301,
      "концер": 2302,
      "консуль": 2303,
      "предел": 2304,
      "главой": 2305,
      "минэнерго": 2306,
      "беки": 2307,
      "сиг": 2308,
      "чинов": 2309,
      "первые": 2310,
      "края": 2311,
      "санкт": 2312,
      "ющую": 2313,
      "слож": 2314,
      "ближай": 2315,
      "мых": 2316,
      "ставки": 2317,
      "церемони": 2318,
      "торго": 2319,
      "армии": 2320,
      "работы": 2321,
      "компания": 2322,
      "сербских": 2323,
      "правительстве": 2324,
      "плате": 2325,
      "получили": 2326,
      "военной": 2327,
      "операторов": 2328,
      "стане": 2329,
      "премьера": 2330,
      "безопасность": 2331,
      "сотрудников": 2332,
      "миллениала": 2333,
      "инима": 2334,
      "европарла": 2335,
      "душанбе": 2336,
      "вшей": 2337,
      "заним": 2338,
      "курти": 2339,
      "движение": 2340,
      "ситуацию": 2341,
      "ндии": 2342,
      "ракеты": 2343,
      "команду": 2344,
      "журналистов": 2345,
      "бенз": 2346,
      "человека": 2347,
      "ударов": 2348,
      "эрдо": 2349,
      "выборах": 2350,
      "случае": 2351,
      "помощью": 2352,
      "пространства": 2353,
      "системой": 2354,
      "взаимодействия": 2355,
      "позиции": 2356,
      "антифрод": 2357,
      "своих": 2358,
      "ограничений": 2359,
      "районе": 2360,
      "цифры": 2361,
      "отмечается": 2362,
      "разведыватель": 2363,
      "севере": 2364,
      "dia": 2365,
      "самолеты": 2366,
      "егип": 2367,
      "благодаря": 2368,
      "узбеки": 2369,
      "деятельности": 2370,
      "итогам": 2371,
      "резолюцию": 2372,
      "фильмов": 2373,
      "борьбе": 2374,
      "метохии": 2375,
      "баронет": 2376,
      "период": 2377,
      "договоренности": 2378,
      "результате": 2379,
      "стратеги": 2380,
      "позволяет": 2381,
      "мужчина": 2382,
      "августа": 2383,
      "справочник": 2384,
      "качестве": 2385,
      "конгресс": 2386,
      "многие": 2387,
      "аристо": 2388,
      "фестивал": 2389,
      "аналити": 2390,
      "наркоти": 2391,
      "финляндии": 2392,
      "кинематографии": 2393,
      "самопровозглашенной": 2394,
      "амирамов": 2395,
      "карьер": 2396,
      "онлайн": 2397,
      "анастасия": 2398,
      "европарламент": 2399,
      "4s": 2400,
      "g4s": 2401,
      "ri": 2402,
      "бле": 2403,
      "вело": 2404,
      "вкла": 2405,
      "дной": 2406,
      "дле": 2407,
      "дина": 2408,
      "дале": 2409,
      "ез": 2410,
      "зве": 2411,
      "звание": 2412,
      "кто": 2413,
      "кли": 2414,
      "нр": 2415,
      "нел": 2416,
      "орг": 2417,
      "опти": 2418,
      "пит": 2419,
      "рч": 2420,
      "син": 2421,
      "сва": 2422,
      "спра": 2423,
      "ске": 2424,
      "сцен": 2425,
      "сразу": 2426,
      "сведения": 2427,
      "ул": 2428,
      "фри": 2429,
      "цу": 2430,
      "чрез": 2431,
      "шек": 2432,
      "шина": 2433,
      "щении": 2434,
      "эн": 2435,
      "эка": 2436,
      "енции": 2437,
      "енный": 2438,
      "нове": 2439,
      "резид": 2440,
      "пока": 2441,
      "пода": 2442,
      "поставля": 2443,
      "погранич": 2444,
      "понима": 2445,
      "ань": 2446,
      "госор": 2447,
      "того": 2448,
      "илли": 2449,
      "напад": 2450,
      "собира": 2451,
      "кабин": 2452,
      "замет": 2453,
      "доказа": 2454,
      "таким": 2455,
      "мид": 2456,
      "давно": 2457,
      "прода": 2458,
      "провер": 2459,
      "прекрат": 2460,
      "преступл": 2461,
      "нему": 2462,
      "невозможно": 2463,
      "обре": 2464,
      "лор": 2465,
      "май": 2466,
      "ествен": 2467,
      "бога": 2468,
      "рыно": 2469,
      "привод": 2470,
      "призы": 2471,
      "призна": 2472,
      "практи": 2473,
      "судеб": 2474,
      "депута": 2475,
      "разных": 2476,
      "полномо": 2477,
      "алиев": 2478,
      "страна": 2479,
      "графи": 2480,
      "границу": 2481,
      "которую": 2482,
      "минцифры": 2483,
      "менее": 2484,
      "ковал": 2485,
      "серье": 2486,
      "современ": 2487,
      "бук": 2488,
      "женой": 2489,
      "бывший": 2490,
      "порта": 2491,
      "владель": 2492,
      "близ": 2493,
      "начал": 2494,
      "началь": 2495,
      "начале": 2496,
      "сказа": 2497,
      "друга": 2498,
      "имени": 2499,
      "работе": 2500,
      "действует": 2501,
      "основе": 2502,
      "алексей": 2503,
      "газеты": 2504,
      "принима": 2505,
      "щих": 2506,
      "помога": 2507,
      "вопрос": 2508,
      "операций": 2509,
      "техниче": 2510,
      "известен": 2511,
      "инициа": 2512,
      "основан": 2513,
      "встречу": 2514,
      "груз": 2515,
      "шоу": 2516,
      "республике": 2517,
      "блэка": 2518,
      "решение": 2519,
      "работает": 2520,
      "открыть": 2521,
      "руководство": 2522,
      "взя": 2523,
      "источ": 2524,
      "внутренней": 2525,
      "media": 2526,
      "млрд": 2527,
      "обвиня": 2528,
      "обвинения": 2529,
      "существу": 2530,
      "обеспечения": 2531,
      "активно": 2532,
      "прессслужбе": 2533,
      "жесткой": 2534,
      "тюрьме": 2535,
      "среду": 2536,
      "повре": 2537,
      "управлении": 2538,
      "вайте": 2539,
      "участвовать": 2540,
      "значение": 2541,
      "срок": 2542,
      "урегулированию": 2543,
      "освобод": 2544,
      "представляет": 2545,
      "министерства": 2546,
      "партнер": 2547,
      "медицин": 2548,
      "газпрома": 2549,
      "группы": 2550,
      "потребитель": 2551,
      "атаки": 2552,
      "отношении": 2553,
      "пунктов": 2554,
      "централь": 2555,
      "интернете": 2556,
      "заместителем": 2557,
      "напрямую": 2558,
      "мощности": 2559,
      "очередь": 2560,
      "аммиако": 2561,
      "azal": 2562,
      "подтверд": 2563,
      "законода": 2564,
      "назад": 2565,
      "совершенно": 2566,
      "хозяй": 2567,
      "legionmedia": 2568,
      "карьеру": 2569,
      "неле": 2570,
      "госорганов": 2571,
      "серьез": 2572,
      "20": 2573,
      "be": 2574,
      "her": 2575,
      "si": 2576,
      "us": 2577,
      "va": 2578,
      "xi": 2579,
      "аре": 2580,
      "ась": 2581,
      "введ": 2582,
      "всем": 2583,
      "вроде": 2584,
      "гед": 2585,
      "гети": 2586,
      "дл": 2587,
      "древ": 2588,
      "жений": 2589,
      "зво": 2590,
      "иго": 2591,
      "иде": 2592,
      "йте": 2593,
      "лот": 2594,
      "мв": 2595,
      "осу": 2596,
      "оке": 2597,
      "сии": 2598,
      "спорт": 2599,
      "сдела": 2600,
      "сфе": 2601,
      "сбор": 2602,
      "срав": 2603,
      "тся": 2604,
      "ум": 2605,
      "удар": 2606,
      "увели": 2607,
      "фт": 2608,
      "фра": 2609,
      "фла": 2610,
      "февра": 2611,
      "чел": 2612,
      "шед": 2613,
      "ым": 2614,
      "юрий": 2615,
      "раза": 2616,
      "раскры": 2617,
      "рост": 2618,
      "рожд": 2619,
      "ноябре": 2620,
      "кора": 2621,
      "когда": 2622,
      "ресур": 2623,
      "повы": 2624,
      "поте": 2625,
      "поме": 2626,
      "поня": 2627,
      "поэтому": 2628,
      "анных": 2629,
      "гор": 2630,
      "гост": 2631,
      "тона": 2632,
      "воро": 2633,
      "намер": 2634,
      "соста": 2635,
      "соедин": 2636,
      "составля": 2637,
      "кажды": 2638,
      "киров": 2639,
      "зако": 2640,
      "запу": 2641,
      "там": 2642,
      "дает": 2643,
      "проф": 2644,
      "провел": 2645,
      "невест": 2646,
      "анима": 2647,
      "скоро": 2648,
      "стати": 2649,
      "сад": 2650,
      "избира": 2651,
      "примен": 2652,
      "прихода": 2653,
      "приобре": 2654,
      "компл": 2655,
      "исполн": 2656,
      "тера": 2657,
      "теха": 2658,
      "стоимо": 2659,
      "суда": 2660,
      "веро": 2661,
      "вечер": 2662,
      "зирован": 2663,
      "зируют": 2664,
      "разгово": 2665,
      "хочет": 2666,
      "хочу": 2667,
      "конце": 2668,
      "странами": 2669,
      "тура": 2670,
      "туру": 2671,
      "котором": 2672,
      "симу": 2673,
      "трагед": 2674,
      "вили": 2675,
      "крати": 2676,
      "няя": 2677,
      "общества": 2678,
      "обществен": 2679,
      "аниях": 2680,
      "войска": 2681,
      "гуман": 2682,
      "инадле": 2683,
      "перечень": 2684,
      "учре": 2685,
      "жена": 2686,
      "ющее": 2687,
      "циям": 2688,
      "валю": 2689,
      "быстро": 2690,
      "спек": 2691,
      "своим": 2692,
      "своего": 2693,
      "сообщалось": 2694,
      "властей": 2695,
      "самоле": 2696,
      "заявления": 2697,
      "ничест": 2698,
      "ходя": 2699,
      "эксофи": 2700,
      "работу": 2701,
      "емым": 2702,
      "слежи": 2703,
      "времени": 2704,
      "дональдом": 2705,
      "принадле": 2706,
      "политику": 2707,
      "связан": 2708,
      "служб": 2709,
      "служил": 2710,
      "службы": 2711,
      "медведева": 2712,
      "военных": 2713,
      "знаком": 2714,
      "alam": 2715,
      "ницей": 2716,
      "другими": 2717,
      "позже": 2718,
      "круг": 2719,
      "штата": 2720,
      "регион": 2721,
      "встречи": 2722,
      "государств": 2723,
      "считается": 2724,
      "казах": 2725,
      "утверждения": 2726,
      "движения": 2727,
      "корру": 2728,
      "корпора": 2729,
      "китая": 2730,
      "судно": 2731,
      "призвал": 2732,
      "руководител": 2733,
      "ндс": 2734,
      "площа": 2735,
      "ракет": 2736,
      "тяну": 2737,
      "энергети": 2738,
      "пустить": 2739,
      "товаров": 2740,
      "бенджа": 2741,
      "председателя": 2742,
      "достиг": 2743,
      "контроли": 2744,
      "произошло": 2745,
      "вместо": 2746,
      "деньги": 2747,
      "тейлор": 2748,
      "шутки": 2749,
      "поставок": 2750,
      "огром": 2751,
      "участвовал": 2752,
      "наруш": 2753,
      "нарушения": 2754,
      "образом": 2755,
      "look": 2756,
      "зеленского": 2757,
      "северо": 2758,
      "медицины": 2759,
      "эксперт": 2760,
      "делега": 2761,
      "документ": 2762,
      "проблем": 2763,
      "проблемы": 2764,
      "балан": 2765,
      "особня": 2766,
      "планируется": 2767,
      "аппарата": 2768,
      "бизнеса": 2769,
      "заявлял": 2770,
      "расследование": 2771,
      "свифт": 2772,
      "сканд": 2773,
      "альянса": 2774,
      "гляд": 2775,
      "осуществля": 2776,
      "силами": 2777,
      "посещения": 2778,
      "преврат": 2779,
      "незаконно": 2780,
      "слыш": 2781,
      "контейнер": 2782,
      "возглавляет": 2783,
      "внимание": 2784,
      "координирует": 2785,
      "исследов": 2786,
      "социальных": 2787,
      "комитета": 2788,
      "катастроф": 2789,
      "зависимо": 2790,
      "предусматривает": 2791,
      "эксплуатацию": 2792,
      "new": 2793,
      "титул": 2794,
      "андрей": 2795,
      "фестиваля": 2796,
      "оптими": 2797,
      "доказатель": 2798,
      "сфере": 2799,
      "когдато": 2800,
      "каждый": 2801,
      "комплек": 2802,
      "alamy": 2803,
      "bal": 2804,
      "glo": 2805,
      "le": 2806,
      "nt": 2807,
      "op": 2808,
      "out": 2809,
      "pr": 2810,
      "sa": 2811,
      "un": 2812,
      "бран": 2813,
      "вк": 2814,
      "вшие": 2815,
      "ган": 2816,
      "дэ": 2817,
      "дво": 2818,
      "дем": 2819,
      "джи": 2820,
      "еха": 2821,
      "езд": 2822,
      "жер": 2823,
      "жного": 2824,
      "зии": 2825,
      "ист": 2826,
      "иной": 2827,
      "кали": 2828,
      "кнр": 2829,
      "лд": 2830,
      "мя": 2831,
      "млад": 2832,
      "нало": 2833,
      "оф": 2834,
      "ост": 2835,
      "оцен": 2836,
      "плю": 2837,
      "пси": 2838,
      "пять": 2839,
      "спа": 2840,
      "свой": 2841,
      "справ": 2842,
      "ук": 2843,
      "услу": 2844,
      "успе": 2845,
      "укре": 2846,
      "цера": 2847,
      "цкий": 2848,
      "чного": 2849,
      "чным": 2850,
      "школ": 2851,
      "стка": 2852,
      "стинга": 2853,
      "енная": 2854,
      "ради": 2855,
      "раня": 2856,
      "рова": 2857,
      "росиму": 2858,
      "кова": 2859,
      "реализ": 2860,
      "пот": 2861,
      "похо": 2862,
      "поряд": 2863,
      "поток": 2864,
      "анка": 2865,
      "гой": 2866,
      "гом": 2867,
      "толи": 2868,
      "еры": 2869,
      "ингра": 2870,
      "интел": 2871,
      "инстру": 2872,
      "елена": 2873,
      "илуч": 2874,
      "наря": 2875,
      "науч": 2876,
      "народа": 2877,
      "наилуч": 2878,
      "ваем": 2879,
      "состав": 2880,
      "соору": 2881,
      "каса": 2882,
      "зай": 2883,
      "зада": 2884,
      "заба": 2885,
      "законч": 2886,
      "дой": 2887,
      "доме": 2888,
      "доход": 2889,
      "домой": 2890,
      "рию": 2891,
      "тай": 2892,
      "таких": 2893,
      "мор": 2894,
      "модели": 2895,
      "мино": 2896,
      "микро": 2897,
      "пропа": 2898,
      "просил": 2899,
      "провай": 2900,
      "промыш": 2901,
      "пробле": 2902,
      "недавно": 2903,
      "отказа": 2904,
      "выз": 2905,
      "выра": 2906,
      "вышла": 2907,
      "макси": 2908,
      "тификации": 2909,
      "скоре": 2910,
      "вии": 2911,
      "части": 2912,
      "часов": 2913,
      "фоне": 2914,
      "гар": 2915,
      "гази": 2916,
      "причи": 2917,
      "кому": 2918,
      "теров": 2919,
      "мера": 2920,
      "стол": 2921,
      "празд": 2922,
      "сум": 2923,
      "судов": 2924,
      "дере": 2925,
      "декаб": 2926,
      "ального": 2927,
      "вес": 2928,
      "раздел": 2929,
      "подраздел": 2930,
      "полков": 2931,
      "дия": 2932,
      "диров": 2933,
      "дивер": 2934,
      "дипло": 2935,
      "алие": 2936,
      "хостинга": 2937,
      "контак": 2938,
      "конкре": 2939,
      "предвыбо": 2940,
      "гран": 2941,
      "тури": 2942,
      "бере": 2943,
      "сих": 2944,
      "возник": 2945,
      "перен": 2946,
      "кращение": 2947,
      "тельно": 2948,
      "казалось": 2949,
      "хара": 2950,
      "етаки": 2951,
      "родствен": 2952,
      "служа": 2953,
      "слуцкий": 2954,
      "анам": 2955,
      "одного": 2956,
      "фидан": 2957,
      "стех": 2958,
      "место": 2959,
      "свое": 2960,
      "стуб": 2961,
      "ступа": 2962,
      "ближ": 2963,
      "начали": 2964,
      "мые": 2965,
      "друг": 2966,
      "никаких": 2967,
      "шать": 2968,
      "трех": 2969,
      "работала": 2970,
      "ствия": 2971,
      "свет": 2972,
      "света": 2973,
      "газма": 2974,
      "парта": 2975,
      "публика": 2976,
      "сербский": 2977,
      "данные": 2978,
      "детали": 2979,
      "колле": 2980,
      "рубля": 2981,
      "министров": 2982,
      "получить": 2983,
      "щать": 2984,
      "военная": 2985,
      "нейших": 2986,
      "обещ": 2987,
      "силы": 2988,
      "массо": 2989,
      "ложили": 2990,
      "ющими": 2991,
      "основал": 2992,
      "семье": 2993,
      "информацию": 2994,
      "пришлось": 2995,
      "белы": 2996,
      "считают": 2997,
      "центре": 2998,
      "поддержке": 2999,
      "университет": 3000,
      "работать": 3001,
      "американским": 3002,
      "ing": 3003,
      "дронами": 3004,
      "камикад": 3005,
      "курс": 3006,
      "директора": 3007,
      "маркиров": 3008,
      "рованы": 3009,
      "судил": 3010,
      "призра": 3011,
      "руководитель": 3012,
      "вооружение": 3013,
      "колов": 3014,
      "генерал": 3015,
      "внутреннем": 3016,
      "ica": 3017,
      "ment": 3018,
      "полито": 3019,
      "находится": 3020,
      "дентов": 3021,
      "нефтя": 3022,
      "строительстве": 3023,
      "обеспечить": 3024,
      "принял": 3025,
      "внеш": 3026,
      "шести": 3027,
      "норвуд": 3028,
      "молоде": 3029,
      "правиль": 3030,
      "украинывсу": 3031,
      "уровне": 3032,
      "управление": 3033,
      "программы": 3034,
      "артиста": 3035,
      "бюро": 3036,
      "заверш": 3037,
      "самым": 3038,
      "линии": 3039,
      "останов": 3040,
      "издания": 3041,
      "атлан": 3042,
      "всетаки": 3043,
      "египет": 3044,
      "защиты": 3045,
      "мурманской": 3046,
      "ледоколов": 3047,
      "сервиса": 3048,
      "сервисов": 3049,
      "совместно": 3050,
      "благодар": 3051,
      "итоге": 3052,
      "номор": 3053,
      "западных": 3054,
      "резолюции": 3055,
      "актриса": 3056,
      "этих": 3057,
      "поколения": 3058,
      "лидера": 3059,
      "лидером": 3060,
      "террориз": 3061,
      "террористи": 3062,
      "telegramканал": 3063,
      "telegramканале": 3064,
      "совещ": 3065,
      "думаю": 3066,
      "ильхам": 3067,
      "интересов": 3068,
      "пользователи": 3069,
      "глуб": 3070,
      "поддерживает": 3071,
      "клон": 3072,
      "позднее": 3073,
      "сообщает": 3074,
      "целом": 3075,
      "пожар": 3076,
      "бюджета": 3077,
      "консульти": 3078,
      "санктпетербург": 3079,
      "занимался": 3080,
      "рынок": 3081,
      "приводит": 3082,
      "инициати": 3083,
      "игорь": 3084,
      "сравн": 3085,
      "гуманитар": 3086,
      "global": 3087,
      "интеллек": 3088,
      "промышлен": 3089,
      "причиной": 3090,
      "предвыбор": 3091,
      "камикадзе": 3092,
      "ger": 3093,
      "imag": 3094,
      "jon": 3095,
      "ty": 3096,
      "ube": 3097,
      "бру": 3098,
      "вить": 3099,
      "вспо": 3100,
      "ввести": 3101,
      "взор": 3102,
      "дно": 3103,
      "две": 3104,
      "дью": 3105,
      "ешь": 3106,
      "жу": 3107,
      "жут": 3108,
      "зн": 3109,
      "иро": 3110,
      "ивать": 3111,
      "идет": 3112,
      "клу": 3113,
      "лед": 3114,
      "лель": 3115,
      "мемы": 3116,
      "нин": 3117,
      "оц": 3118,
      "ого": 3119,
      "одо": 3120,
      "определ": 3121,
      "птовал": 3122,
      "съ": 3123,
      "сен": 3124,
      "спро": 3125,
      "сель": 3126,
      "счет": 3127,
      "сэр": 3128,
      "тал": 3129,
      "тет": 3130,
      "тных": 3131,
      "твра": 3132,
      "тету": 3133,
      "уд": 3134,
      "упо": 3135,
      "уть": 3136,
      "унич": 3137,
      "фрг": 3138,
      "фрем": 3139,
      "цб": 3140,
      "чном": 3141,
      "чении": 3142,
      "щества": 3143,
      "ывайте": 3144,
      "янов": 3145,
      "ядер": 3146,
      "язы": 3147,
      "стки": 3148,
      "стях": 3149,
      "стэн": 3150,
      "енность": 3151,
      "роста": 3152,
      "кос": 3153,
      "кость": 3154,
      "рели": 3155,
      "реша": 3156,
      "реак": 3157,
      "ребен": 3158,
      "поло": 3159,
      "попа": 3160,
      "повер": 3161,
      "постра": 3162,
      "полож": 3163,
      "посколь": 3164,
      "понд": 3165,
      "покла": 3166,
      "покин": 3167,
      "побед": 3168,
      "алу": 3169,
      "тома": 3170,
      "вода": 3171,
      "инг": 3172,
      "инде": 3173,
      "насел": 3174,
      "награжд": 3175,
      "нашей": 3176,
      "сон": 3177,
      "сот": 3178,
      "замо": 3179,
      "зага": 3180,
      "зации": 3181,
      "доложили": 3182,
      "москов": 3183,
      "мию": 3184,
      "проз": 3185,
      "проце": 3186,
      "преж": 3187,
      "преступ": 3188,
      "премии": 3189,
      "некоторых": 3190,
      "недели": 3191,
      "ливо": 3192,
      "оба": 3193,
      "отслежи": 3194,
      "выс": 3195,
      "выше": 3196,
      "мах": 3197,
      "вис": 3198,
      "кури": 3199,
      "ставл": 3200,
      "песня": 3201,
      "случ": 3202,
      "ениях": 3203,
      "чать": 3204,
      "гает": 3205,
      "прибы": 3206,
      "привел": 3207,
      "комна": 3208,
      "комму": 3209,
      "мерах": 3210,
      "чером": 3211,
      "ческую": 3212,
      "деров": 3213,
      "департа": 3214,
      "зия": 3215,
      "разговари": 3216,
      "подч": 3217,
      "подел": 3218,
      "подписа": 3219,
      "полно": 3220,
      "енты": 3221,
      "путь": 3222,
      "контин": 3223,
      "предпринима": 3224,
      "представл": 3225,
      "тые": 3226,
      "ительной": 3227,
      "туда": 3228,
      "баку": 3229,
      "минут": 3230,
      "беспо": 3231,
      "бесед": 3232,
      "зов": 3233,
      "лера": 3234,
      "фотографии": 3235,
      "еведу": 3236,
      "возму": 3237,
      "первым": 3238,
      "первая": 3239,
      "ведет": 3240,
      "водей": 3241,
      "будет": 3242,
      "кану": 3243,
      "ябин": 3244,
      "скр": 3245,
      "фир": 3246,
      "порто": 3247,
      "места": 3248,
      "месте": 3249,
      "сообщила": 3250,
      "тивно": 3251,
      "начина": 3252,
      "строй": 3253,
      "телеведу": 3254,
      "цепоч": 3255,
      "акти": 3256,
      "имел": 3257,
      "арен": 3258,
      "требу": 3259,
      "черномор": 3260,
      "респонд": 3261,
      "здра": 3262,
      "яху": 3263,
      "труб": 3264,
      "компанию": 3265,
      "украинских": 3266,
      "пыта": 3267,
      "говорить": 3268,
      "рассматри": 3269,
      "колени": 3270,
      "сторону": 3271,
      "пресссекрета": 3272,
      "ers": 3273,
      "может": 3274,
      "янва": 3275,
      "станции": 3276,
      "большая": 3277,
      "сексу": 3278,
      "amer": 3279,
      "возможности": 3280,
      "нетань": 3281,
      "регуляр": 3282,
      "москвы": 3283,
      "масштаб": 3284,
      "крушения": 3285,
      "штат": 3286,
      "владими": 3287,
      "встрет": 3288,
      "встрече": 3289,
      "автома": 3290,
      "роваться": 3291,
      "россия": 3292,
      "брать": 3293,
      "ess": 3294,
      "корреспонд": 3295,
      "главной": 3296,
      "внутри": 3297,
      "саммит": 3298,
      "представитель": 3299,
      "участника": 3300,
      "создания": 3301,
      "газопровод": 3302,
      "международным": 3303,
      "тического": 3304,
      "подписывайте": 3305,
      "заключенных": 3306,
      "воздушной": 3307,
      "stop": 3308,
      "фазы": 3309,
      "провода": 3310,
      "mar": 3311,
      "met": 3312,
      "поясн": 3313,
      "полицей": 3314,
      "ступил": 3315,
      "белом": 3316,
      "ожида": 3317,
      "благо": 3318,
      "бомбар": 3319,
      "разработку": 3320,
      "активности": 3321,
      "финанси": 3322,
      "гроз": 3323,
      "важно": 3324,
      "контроль": 3325,
      "тюрьмы": 3326,
      "обрат": 3327,
      "федеральных": 3328,
      "блои": 3329,
      "уровня": 3330,
      "противодей": 3331,
      "оборот": 3332,
      "урегулирования": 3333,
      "культур": 3334,
      "причем": 3335,
      "господин": 3336,
      "советник": 3337,
      "соверш": 3338,
      "бывшего": 3339,
      "юридической": 3340,
      "юридических": 3341,
      "азербайджана": 3342,
      "написал": 3343,
      "ледокол": 3344,
      "газпром": 3345,
      "оружием": 3346,
      "автомобил": 3347,
      "надзо": 3348,
      "доктора": 3349,
      "деятельность": 3350,
      "заседание": 3351,
      "северный": 3352,
      "отношений": 3353,
      "малень": 3354,
      "особенно": 3355,
      "режима": 3356,
      "сайтов": 3357,
      "предприятий": 3358,
      "предприятия": 3359,
      "петросян": 3360,
      "петросяна": 3361,
      "ховной": 3362,
      "chri": 3363,
      "ехал": 3364,
      "устроить": 3365,
      "дополнительные": 3366,
      "предотвра": 3367,
      "отношениях": 3368,
      "вооруженных": 3369,
      "криптовал": 3370,
      "союза": 3371,
      "обычно": 3372,
      "бороны": 3373,
      "болез": 3374,
      "стабильности": 3375,
      "назначен": 3376,
      "палаты": 3377,
      "музыкан": 3378,
      "соцсетях": 3379,
      "чтото": 3380,
      "наследника": 3381,
      "бермудском": 3382,
      "защищ": 3383,
      "выясн": 3384,
      "партнеров": 3385,
      "усадьбе": 3386,
      "ежед": 3387,
      "сохраня": 3388,
      "зафиксировали": 3389,
      "движением": 3390,
      "германии": 3391,
      "инфраструктуры": 3392,
      "треугольнике": 3393,
      "апреле": 3394,
      "рознич": 3395,
      "рекоменда": 3396,
      "выпустил": 3397,
      "магистра": 3398,
      "печат": 3399,
      "мечта": 3400,
      "антифродплатфор": 3401,
      "аристокра": 3402,
      "свадь": 3403,
      "резиденции": 3404,
      "кабинета": 3405,
      "прекратить": 3406,
      "грузки": 3407,
      "статисти": 3408,
      "эксофицер": 3409,
      "корруп": 3410,
      "бенджамин": 3411,
      "жерт": 3412,
      "школу": 3413,
      "минобороны": 3414,
      "максим": 3415,
      "дипломатиче": 3416,
      "публикации": 3417,
      "белый": 3418,
      "политологии": 3419,
      "нефтяных": 3420,
      "совещаний": 3421,
      "images": 3422,
      "jones": 3423,
      "дьюк": 3424,
      "оцени": 3425,
      "уничто": 3426,
      "поскольку": 3427,
      "коммуника": 3428,
      "цепочки": 3429,
      "нетаньяху": 3430,
      "подписывайтесь": 3431,
      "stopher": 3432,
      "бомбардиров": 3433,
      "christopher": 3434,
      "ava": 3435,
      "br": 3436,
      "da": 3437,
      "de": 3438,
      "ed": 3439,
      "ft": 3440,
      "gi": 3441,
      "gu": 3442,
      "get": 3443,
      "java": 3444,
      "ky": 3445,
      "lu": 3446,
      "om": 3447,
      "ox": 3448,
      "po": 3449,
      "spa": 3450,
      "tok": 3451,
      "ua": 3452,
      "we": 3453,
      "yout": 3454,
      "апа": 3455,
      "ассо": 3456,
      "впол": 3457,
      "ввод": 3458,
      "впервые": 3459,
      "вглуб": 3460,
      "гк": 3461,
      "гне": 3462,
      "гана": 3463,
      "др": 3464,
      "два": 3465,
      "дни": 3466,
      "дии": 3467,
      "днем": 3468,
      "емо": 3469,
      "еси": 3470,
      "жей": 3471,
      "жили": 3472,
      "жела": 3473,
      "жители": 3474,
      "звен": 3475,
      "здоров": 3476,
      "их": 3477,
      "ия": 3478,
      "иму": 3479,
      "имет": 3480,
      "игру": 3481,
      "игро": 3482,
      "кво": 3483,
      "кани": 3484,
      "кило": 3485,
      "лоб": 3486,
      "мг": 3487,
      "мени": 3488,
      "нан": 3489,
      "нью": 3490,
      "ок": 3491,
      "оно": 3492,
      "оди": 3493,
      "остро": 3494,
      "опас": 3495,
      "пан": 3496,
      "пил": 3497,
      "пли": 3498,
      "пись": 3499,
      "сказ": 3500,
      "снова": 3501,
      "снаб": 3502,
      "тно": 3503,
      "указ": 3504,
      "утом": 3505,
      "усп": 3506,
      "указал": 3507,
      "установ": 3508,
      "фан": 3509,
      "фран": 3510,
      "хан": 3511,
      "хит": 3512,
      "хват": 3513,
      "цве": 3514,
      "чис": 3515,
      "шан": 3516,
      "штаты": 3517,
      "эй": 3518,
      "стных": 3519,
      "стской": 3520,
      "стям": 3521,
      "стенко": 3522,
      "енса": 3523,
      "енным": 3524,
      "рады": 3525,
      "роса": 3526,
      "рождения": 3527,
      "роприяти": 3528,
      "ноч": 3529,
      "нового": 3530,
      "новления": 3531,
      "кович": 3532,
      "реест": 3533,
      "поми": 3534,
      "потер": 3535,
      "поведение": 3536,
      "анг": 3537,
      "анной": 3538,
      "инии": 3539,
      "инди": 3540,
      "иле": 3541,
      "награ": 3542,
      "ваю": 3543,
      "состо": 3544,
      "сосед": 3545,
      "соотечествен": 3546,
      "содержа": 3547,
      "заведу": 3548,
      "заболе": 3549,
      "дора": 3550,
      "доне": 3551,
      "доста": 3552,
      "доступа": 3553,
      "ними": 3554,
      "тамо": 3555,
      "тами": 3556,
      "такая": 3557,
      "таблои": 3558,
      "ционе": 3559,
      "мона": 3560,
      "могли": 3561,
      "лат": 3562,
      "давление": 3563,
      "простра": 3564,
      "проход": 3565,
      "протя": 3566,
      "прошло": 3567,
      "руя": 3568,
      "руется": 3569,
      "недель": 3570,
      "неожи": 3571,
      "ликт": 3572,
      "обору": 3573,
      "облом": 3574,
      "отри": 3575,
      "отстав": 3576,
      "отлич": 3577,
      "отличи": 3578,
      "выда": 3579,
      "вышли": 3580,
      "вычай": 3581,
      "ссии": 3582,
      "машин": 3583,
      "есть": 3584,
      "скор": 3585,
      "скому": 3586,
      "вив": 3587,
      "види": 3588,
      "дум": 3589,
      "думы": 3590,
      "купри": 3591,
      "павл": 3592,
      "ровалась": 3593,
      "слан": 3594,
      "избран": 3595,
      "гами": 3596,
      "приход": 3597,
      "присут": 3598,
      "коммен": 3599,
      "мещения": 3600,
      "мероприяти": 3601,
      "ческим": 3602,
      "ческая": 3603,
      "ческом": 3604,
      "ческое": 3605,
      "демо": 3606,
      "альном": 3607,
      "альное": 3608,
      "вез": 3609,
      "вечером": 3610,
      "разви": 3611,
      "различ": 3612,
      "путе": 3613,
      "люби": 3614,
      "контр": 3615,
      "страхо": 3616,
      "страну": 3617,
      "бами": 3618,
      "глаза": 3619,
      "нования": 3620,
      "безу": 3621,
      "сино": 3622,
      "золо": 3623,
      "зовет": 3624,
      "менте": 3625,
      "ментов": 3626,
      "чие": 3627,
      "трат": 3628,
      "тради": 3629,
      "возвра": 3630,
      "первых": 3631,
      "серед": 3632,
      "санк": 3633,
      "широ": 3634,
      "пересек": 3635,
      "учесть": 3636,
      "женности": 3637,
      "жать": 3638,
      "жают": 3639,
      "ствовал": 3640,
      "родить": 3641,
      "родилась": 3642,
      "одном": 3643,
      "сообщило": 3644,
      "самом": 3645,
      "самого": 3646,
      "мысл": 3647,
      "заявление": 3648,
      "тели": 3649,
      "телек": 3650,
      "президентских": 3651,
      "ителями": 3652,
      "зумер": 3653,
      "требов": 3654,
      "черного": 3655,
      "должности": 3656,
      "осна": 3657,
      "основа": 3658,
      "объедин": 3659,
      "трубо": 3660,
      "компенса": 3661,
      "паспор": 3662,
      "украину": 3663,
      "украинский": 3664,
      "ственного": 3665,
      "турцию": 3666,
      "соблю": 3667,
      "дывается": 3668,
      "ятно": 3669,
      "колен": 3670,
      "прило": 3671,
      "политика": 3672,
      "рубль": 3673,
      "щает": 3674,
      "органов": 3675,
      "читайте": 3676,
      "врач": 3677,
      "военные": 3678,
      "военный": 3679,
      "берл": 3680,
      "джорд": 3681,
      "формации": 3682,
      "знамен": 3683,
      "большин": 3684,
      "села": 3685,
      "распростран": 3686,
      "распростра": 3687,
      "сеть": 3688,
      "москве": 3689,
      "москву": 3690,
      "круш": 3691,
      "штаба": 3692,
      "штатов": 3693,
      "гражданам": 3694,
      "встреча": 3695,
      "действий": 3696,
      "названием": 3697,
      "информацион": 3698,
      "информационной": 3699,
      "казать": 3700,
      "занимал": 3701,
      "американских": 3702,
      "дрон": 3703,
      "британии": 3704,
      "чув": 3705,
      "конфликт": 3706,
      "тысячи": 3707,
      "производства": 3708,
      "производителей": 3709,
      "международной": 3710,
      "международные": 3711,
      "тически": 3712,
      "вицепремьера": 3713,
      "жизнь": 3714,
      "отвечая": 3715,
      "плохо": 3716,
      "пытались": 3717,
      "креа": 3718,
      "команды": 3719,
      "систем": 3720,
      "тяж": 3721,
      "добавили": 3722,
      "reut": 3723,
      "заключил": 3724,
      "журналисты": 3725,
      "офицера": 3726,
      "товары": 3727,
      "юмор": 3728,
      "людям": 3729,
      "удары": 3730,
      "целях": 3731,
      "целям": 3732,
      "выборы": 3733,
      "строительства": 3734,
      "строительство": 3735,
      "женщину": 3736,
      "случай": 3737,
      "шестви": 3738,
      "обращении": 3739,
      "правила": 3740,
      "федерального": 3741,
      "агентств": 3742,
      "экономики": 3743,
      "блогер": 3744,
      "уровень": 3745,
      "управления": 3746,
      "реализацию": 3747,
      "палестинским": 3748,
      "срока": 3749,
      "кадр": 3750,
      "миссии": 3751,
      "образователь": 3752,
      "самых": 3753,
      "советником": 3754,
      "плану": 3755,
      "худ": 3756,
      "отмеч": 3757,
      "поставкам": 3758,
      "предложил": 3759,
      "сегодняш": 3760,
      "продолжил": 3761,
      "мурманск": 3762,
      "легко": 3763,
      "посредников": 3764,
      "документа": 3765,
      "высоко": 3766,
      "фонда": 3767,
      "влияние": 3768,
      "этим": 3769,
      "прокура": 3770,
      "ведущий": 3771,
      "турецких": 3772,
      "месяца": 3773,
      "генеральный": 3774,
      "малой": 3775,
      "сбивать": 3776,
      "устрой": 3777,
      "ьямин": 3778,
      "напряженности": 3779,
      "предоставля": 3780,
      "безви": 3781,
      "ентами": 3782,
      "союз": 3783,
      "состояние": 3784,
      "комментари": 3785,
      "десятилет": 3786,
      "появились": 3787,
      "брифин": 3788,
      "покушения": 3789,
      "обсужда": 3790,
      "выразил": 3791,
      "выпущ": 3792,
      "ведомство": 3793,
      "отсутствие": 3794,
      "специали": 3795,
      "специализи": 3796,
      "газопровода": 3797,
      "газопроводов": 3798,
      "сотрудничество": 3799,
      "финансовых": 3800,
      "уголовное": 3801,
      "объяснил": 3802,
      "великобритании": 3803,
      "подозр": 3804,
      "подозре": 3805,
      "смешно": 3806,
      "трансформации": 3807,
      "губернатора": 3808,
      "флориды": 3809,
      "читал": 3810,
      "англий": 3811,
      "выполнении": 3812,
      "логистические": 3813,
      "подобные": 3814,
      "мониторинга": 3815,
      "автомобильного": 3816,
      "муницип": 3817,
      "кредитные": 3818,
      "атомной": 3819,
      "галкин": 3820,
      "эконом": 3821,
      "напомнил": 3822,
      "чиновников": 3823,
      "церемонии": 3824,
      "миллениалами": 3825,
      "бензин": 3826,
      "далее": 3827,
      "чрезвычай": 3828,
      "потребительской": 3829,
      "аммиакопровода": 3830,
      "арестов": 3831,
      "рожденных": 3832,
      "составляет": 3833,
      "разговоре": 3834,
      "трагедии": 3835,
      "контролирует": 3836,
      "оптимизируют": 3837,
      "доказательств": 3838,
      "справке": 3839,
      "порядка": 3840,
      "касается": 3841,
      "отказаться": 3842,
      "алиевым": 3843,
      "спроса": 3844,
      "ребенка": 3845,
      "сотни": 3846,
      "процесс": 3847,
      "отслеживать": 3848,
      "департамента": 3849,
      "подчиня": 3850,
      "владимиром": 3851,
      "ежеднев": 3852,
      "рекомендаций": 3853,
      "печатл": 3854,
      "антифродплатформы": 3855,
      "guar": 3856,
      "youtube": 3857,
      "вполне": 3858,
      "вглубь": 3859,
      "дважды": 3860,
      "есиа": 3861,
      "иметь": 3862,
      "канику": 3863,
      "помимо": 3864,
      "оборудов": 3865,
      "комменти": 3866,
      "середине": 3867,
      "требования": 3868,
      "джорджа": 3869,
      "распространя": 3870,
      "reuters": 3871,
      "11": 3872,
      "fox": 3873,
      "ia": 3874,
      "ktok": 3875,
      "od": 3876,
      "ow": 3877,
      "se": 3878,
      "sp": 3879,
      "sof": 3880,
      "te": 3881,
      "ter": 3882,
      "wa": 3883,
      "ая": 3884,
      "ара": 3885,
      "ано": 3886,
      "бить": 3887,
      "вм": 3888,
      "вя": 3889,
      "вче": 3890,
      "вально": 3891,
      "входит": 3892,
      "впечатл": 3893,
      "гно": 3894,
      "гри": 3895,
      "дс": 3896,
      "еже": 3897,
      "ером": 3898,
      "ефрем": 3899,
      "жил": 3900,
      "жени": 3901,
      "жной": 3902,
      "зм": 3903,
      "ира": 3904,
      "иски": 3905,
      "иден": 3906,
      "йдет": 3907,
      "йор": 3908,
      "кель": 3909,
      "кем": 3910,
      "кров": 3911,
      "каль": 3912,
      "ксол": 3913,
      "луч": 3914,
      "лини": 3915,
      "ллель": 3916,
      "мэ": 3917,
      "миль": 3918,
      "нп": 3919,
      "нтов": 3920,
      "нета": 3921,
      "оши": 3922,
      "опыт": 3923,
      "окажется": 3924,
      "осудил": 3925,
      "пило": 3926,
      "птур": 3927,
      "пилот": 3928,
      "рс": 3929,
      "рэ": 3930,
      "смер": 3931,
      "смен": 3932,
      "сили": 3933,
      "сша": 3934,
      "спрос": 3935,
      "срю": 3936,
      "сможет": 3937,
      "тест": 3938,
      "тном": 3939,
      "темы": 3940,
      "уста": 3941,
      "уди": 3942,
      "флет": 3943,
      "фило": 3944,
      "фено": 3945,
      "хри": 3946,
      "хель": 3947,
      "цан": 3948,
      "цска": 3949,
      "чс": 3950,
      "чем": 3951,
      "чвк": 3952,
      "шет": 3953,
      "шот": 3954,
      "ых": 3955,
      "яр": 3956,
      "яться": 3957,
      "стен": 3958,
      "стер": 3959,
      "ститу": 3960,
      "енной": 3961,
      "ентов": 3962,
      "рал": 3963,
      "раст": 3964,
      "родов": 3965,
      "новление": 3966,
      "кот": 3967,
      "коль": 3968,
      "коле": 3969,
      "кофе": 3970,
      "косми": 3971,
      "резер": 3972,
      "реанима": 3973,
      "показ": 3974,
      "помест": 3975,
      "покуп": 3976,
      "попал": 3977,
      "посмо": 3978,
      "показа": 3979,
      "потен": 3980,
      "поезд": 3981,
      "поблагодар": 3982,
      "поклон": 3983,
      "понедель": 3984,
      "поиски": 3985,
      "анным": 3986,
      "городе": 3987,
      "ерного": 3988,
      "ертво": 3989,
      "воени": 3990,
      "воде": 3991,
      "воохран": 3992,
      "итет": 3993,
      "инду": 3994,
      "еля": 3995,
      "ныне": 3996,
      "направо": 3997,
      "ваев": 3998,
      "вающей": 3999,
      "соли": 4000,
      "совать": 4001,
      "соучастника": 4002,
      "соболез": 4003,
      "кать": 4004,
      "кате": 4005,
      "кир": 4006,
      "запа": 4007,
      "заклю": 4008,
      "запис": 4009,
      "завел": 4010,
      "закуп": 4011,
      "зареги": 4012,
      "допу": 4013,
      "добы": 4014,
      "доступ": 4015,
      "дочь": 4016,
      "допустить": 4017,
      "низ": 4018,
      "тасс": 4019,
      "циони": 4020,
      "лав": 4021,
      "дая": 4022,
      "даст": 4023,
      "дако": 4024,
      "проц": 4025,
      "процен": 4026,
      "профе": 4027,
      "просим": 4028,
      "рубе": 4029,
      "пресе": 4030,
      "претен": 4031,
      "препят": 4032,
      "препода": 4033,
      "нега": 4034,
      "немед": 4035,
      "неуда": 4036,
      "обна": 4037,
      "обоснов": 4038,
      "обсуд": 4039,
      "едва": 4040,
      "отпу": 4041,
      "отмен": 4042,
      "отдел": 4043,
      "отключ": 4044,
      "отрас": 4045,
      "отдель": 4046,
      "отправил": 4047,
      "выдерж": 4048,
      "вырос": 4049,
      "ссы": 4050,
      "лов": 4051,
      "маг": 4052,
      "мать": 4053,
      "вида": 4054,
      "вирг": 4055,
      "бон": 4056,
      "боксол": 4057,
      "боцан": 4058,
      "пару": 4059,
      "рые": 4060,
      "рых": 4061,
      "сахара": 4062,
      "изи": 4063,
      "фоку": 4064,
      "гать": 4065,
      "принос": 4066,
      "коммуни": 4067,
      "тео": 4068,
      "терак": 4069,
      "столи": 4070,
      "столиц": 4071,
      "чего": 4072,
      "чески": 4073,
      "суб": 4074,
      "деся": 4075,
      "веж": 4076,
      "зира": 4077,
      "меркель": 4078,
      "различи": 4079,
      "развода": 4080,
      "подрыва": 4081,
      "получа": 4082,
      "гибри": 4083,
      "верто": 4084,
      "хок": 4085,
      "холо": 4086,
      "лющего": 4087,
      "предков": 4088,
      "предлага": 4089,
      "тых": 4090,
      "границы": 4091,
      "бабу": 4092,
      "минго": 4093,
      "зон": 4094,
      "летом": 4095,
      "лесби": 4096,
      "чих": 4097,
      "числ": 4098,
      "вила": 4099,
      "серби": 4100,
      "ждал": 4101,
      "долгос": 4102,
      "которым": 4103,
      "тельной": 4104,
      "тельница": 4105,
      "хакан": 4106,
      "харч": 4107,
      "будь": 4108,
      "перейти": 4109,
      "канц": 4110,
      "канале": 4111,
      "циях": 4112,
      "термин": 4113,
      "спера": 4114,
      "говоря": 4115,
      "анатоли": 4116,
      "сообщест": 4117,
      "начин": 4118,
      "летнюю": 4119,
      "лятор": 4120,
      "телем": 4121,
      "мети": 4122,
      "друж": 4123,
      "президенты": 4124,
      "акты": 4125,
      "актов": 4126,
      "дмитрия": 4127,
      "иммигра": 4128,
      "ционного": 4129,
      "ствий": 4130,
      "сп2": 4131,
      "спц": 4132,
      "спит": 4133,
      "действу": 4134,
      "действовать": 4135,
      "зывает": 4136,
      "цает": 4137,
      "газета": 4138,
      "газету": 4139,
      "емый": 4140,
      "следо": 4141,
      "ственных": 4142,
      "заявила": 4143,
      "стреб": 4144,
      "сербского": 4145,
      "правительством": 4146,
      "данных": 4147,
      "рассмо": 4148,
      "рассказал": 4149,
      "цены": 4150,
      "следствие": 4151,
      "прессе": 4152,
      "мирные": 4153,
      "помог": 4154,
      "военно": 4155,
      "значает": 4156,
      "станут": 4157,
      "ранеесообщалось": 4158,
      "ald": 4159,
      "выйти": 4160,
      "отметили": 4161,
      "палите": 4162,
      "расстав": 4163,
      "проекте": 4164,
      "известных": 4165,
      "ленное": 4166,
      "волхов": 4167,
      "правоохран": 4168,
      "основном": 4169,
      "относ": 4170,
      "действия": 4171,
      "пришел": 4172,
      "объявл": 4173,
      "объявлен": 4174,
      "новая": 4175,
      "казывает": 4176,
      "премьерминистра": 4177,
      "сколько": 4178,
      "браке": 4179,
      "центри": 4180,
      "стался": 4181,
      "поддержал": 4182,
      "поддержкой": 4183,
      "бления": 4184,
      "решений": 4185,
      "американского": 4186,
      "inst": 4187,
      "иноаген": 4188,
      "ответствен": 4189,
      "директоров": 4190,
      "снг": 4191,
      "главным": 4192,
      "ситуация": 4193,
      "щество": 4194,
      "март": 4195,
      "ждается": 4196,
      "участники": 4197,
      "участниками": 4198,
      "создании": 4199,
      "международных": 4200,
      "международного": 4201,
      "карт": 4202,
      "делают": 4203,
      "клады": 4204,
      "взаимодействует": 4205,
      "параллель": 4206,
      "команда": 4207,
      "подписали": 4208,
      "систему": 4209,
      "сняти": 4210,
      "технологии": 4211,
      "гражданской": 4212,
      "reat": 4213,
      "взгляд": 4214,
      "нических": 4215,
      "воздушном": 4216,
      "регулирования": 4217,
      "офицер": 4218,
      "переговоров": 4219,
      "ics": 4220,
      "национального": 4221,
      "нефти": 4222,
      "женщин": 4223,
      "финансов": 4224,
      "жествен": 4225,
      "нормы": 4226,
      "последний": 4227,
      "важным": 4228,
      "молоды": 4229,
      "молодая": 4230,
      "контроля": 4231,
      "автор": 4232,
      "слав": 4233,
      "предполож": 4234,
      "помощь": 4235,
      "поставлен": 4236,
      "катар": 4237,
      "пространстве": 4238,
      "программу": 4239,
      "называл": 4240,
      "разуваев": 4241,
      "кратно": 4242,
      "партию": 4243,
      "партия": 4244,
      "очевид": 4245,
      "антикорруп": 4246,
      "ющийся": 4247,
      "господине": 4248,
      "регионах": 4249,
      "белграде": 4250,
      "освобождения": 4251,
      "направления": 4252,
      "завершения": 4253,
      "самые": 4254,
      "большой": 4255,
      "джаспера": 4256,
      "разведки": 4257,
      "бронет": 4258,
      "поставкой": 4259,
      "исполнительной": 4260,
      "бакалав": 4261,
      "приштине": 4262,
      "написала": 4263,
      "защите": 4264,
      "фикация": 4265,
      "связь": 4266,
      "желез": 4267,
      "сделали": 4268,
      "твор": 4269,
      "надзира": 4270,
      "телефон": 4271,
      "участии": 4272,
      "участия": 4273,
      "посредниче": 4274,
      "заседании": 4275,
      "специальности": 4276,
      "противовоздушной": 4277,
      "если": 4278,
      "танец": 4279,
      "режисс": 4280,
      "сайта": 4281,
      "событиях": 4282,
      "дроновкамикадзе": 4283,
      "заместителя": 4284,
      "продолжается": 4285,
      "снижения": 4286,
      "государственной": 4287,
      "электростанции": 4288,
      "аммиака": 4289,
      "всемир": 4290,
      "всеобъем": 4291,
      "станавли": 4292,
      "циации": 4293,
      "бороться": 4294,
      "любви": 4295,
      "соблюдения": 4296,
      "появилась": 4297,
      "предполагаемым": 4298,
      "age": 4299,
      "земель": 4300,
      "омк": 4301,
      "пожертво": 4302,
      "становится": 4303,
      "вернуть": 4304,
      "контракту": 4305,
      "юмористка": 4306,
      "секретаря": 4307,
      "vid": 4308,
      "усилить": 4309,
      "долларов": 4310,
      "сообщается": 4311,
      "рассказало": 4312,
      "утверждает": 4313,
      "утверждается": 4314,
      "сотрудничестве": 4315,
      "азербайджанские": 4316,
      "экспрессгазету": 4317,
      "tiktok": 4318,
      "пенси": 4319,
      "этниче": 4320,
      "настоящ": 4321,
      "держать": 4322,
      "расширение": 4323,
      "европейском": 4324,
      "открытия": 4325,
      "соответствующий": 4326,
      "кибермошенниками": 4327,
      "онид": 4328,
      "англии": 4329,
      "могло": 4330,
      "суставы": 4331,
      "тюремщи": 4332,
      "ожидания": 4333,
      "муниципалите": 4334,
      "сфера": 4335,
      "футболи": 4336,
      "школе": 4337,
      "родовой": 4338,
      "косовских": 4339,
      "поруч": 4340,
      "постоянно": 4341,
      "исключительно": 4342,
      "девушка": 4343,
      "хорошие": 4344,
      "сигнал": 4345,
      "эрдогана": 4346,
      "узбекистане": 4347,
      "динами": 4348,
      "звезда": 4349,
      "синки": 4350,
      "спраши": 4351,
      "преступлений": 4352,
      "судебных": 4353,
      "буквально": 4354,
      "сказать": 4355,
      "основанного": 4356,
      "поврежд": 4357,
      "медицинских": 4358,
      "нелепы": 4359,
      "введен": 4360,
      "фламинго": 4361,
      "челябин": 4362,
      "помешать": 4363,
      "закона": 4364,
      "зированные": 4365,
      "площад": 4366,
      "нарушении": 4367,
      "североатлан": 4368,
      "особняк": 4369,
      "незаконнорожденных": 4370,
      "катастрофу": 4371,
      "press": 4372,
      "дэвис": 4373,
      "ехать": 4374,
      "офис": 4375,
      "плюс": 4376,
      "похоже": 4377,
      "анкарой": 4378,
      "наряду": 4379,
      "полковника": 4380,
      "газманов": 4381,
      "террористического": 4382,
      "ирони": 4383,
      "огонь": 4384,
      "одобр": 4385,
      "упомина": 4386,
      "религи": 4387,
      "замок": 4388,
      "разговаривать": 4389,
      "возмут": 4390,
      "здравоохран": 4391,
      "america": 4392,
      "регулярно": 4393,
      "россияне": 4394,
      "корреспондент": 4395,
      "полицейской": 4396,
      "ледоколы": 4397,
      "музыкант": 4398,
      "getty": 4399,
      "емого": 4400,
      "ньюйор": 4401,
      "ночью": 4402,
      "состоится": 4403,
      "отрицает": 4404,
      "отличие": 4405,
      "машины": 4406,
      "куприянов": 4407,
      "приходится": 4408,
      "подчиняется": 4409,
      "soft": 4410,
      "араб": 4411,
      "вчера": 4412,
      "ежегод": 4413,
      "флетчер": 4414,
      "феномен": 4415,
      "хельсинки": 4416,
      "поместье": 4417,
      "военизированные": 4418,
      "нынеш": 4419,
      "соболезнования": 4420,
      "катего": 4421,
      "заключается": 4422,
      "зарегистри": 4423,
      "немедленное": 4424,
      "обсудили": 4425,
      "отрасли": 4426,
      "боцанхарч": 4427,
      "столицей": 4428,
      "гибридной": 4429,
      "лесбиян": 4430,
      "долгосро": 4431,
      "всеобъемлющего": 4432,
      "муниципалитетов": 4433,
      "боцанхарченко": 4434,
      "ast": 4435,
      "ber": 4436,
      "ben": 4437,
      "fi": 4438,
      "for": 4439,
      "jd": 4440,
      "li": 4441,
      "man": 4442,
      "mic": 4443,
      "nv": 4444,
      "ov": 4445,
      "oia": 4446,
      "ood": 4447,
      "sky": 4448,
      "tor": 4449,
      "up": 4450,
      "wood": 4451,
      "xic": 4452,
      "абор": 4453,
      "азии": 4454,
      "бис": 4455,
      "били": 4456,
      "въ": 4457,
      "валось": 4458,
      "впослед": 4459,
      "вшая": 4460,
      "гры": 4461,
      "гря": 4462,
      "двер": 4463,
      "дже": 4464,
      "двин": 4465,
      "дально": 4466,
      "днев": 4467,
      "жных": 4468,
      "жные": 4469,
      "жить": 4470,
      "ипоте": 4471,
      "йо": 4472,
      "йле": 4473,
      "кен": 4474,
      "кет": 4475,
      "кел": 4476,
      "кви": 4477,
      "кнов": 4478,
      "квар": 4479,
      "лена": 4480,
      "нского": 4481,
      "олег": 4482,
      "пя": 4483,
      "псб": 4484,
      "рт": 4485,
      "см": 4486,
      "сли": 4487,
      "сбе": 4488,
      "спас": 4489,
      "спуст": 4490,
      "тему": 4491,
      "тилли": 4492,
      "ущ": 4493,
      "уро": 4494,
      "уче": 4495,
      "убе": 4496,
      "уби": 4497,
      "хл": 4498,
      "хани": 4499,
      "цем": 4500,
      "чка": 4501,
      "чки": 4502,
      "чить": 4503,
      "чий": 4504,
      "чными": 4505,
      "члена": 4506,
      "щим": 4507,
      "ъя": 4508,
      "ял": 4509,
      "яют": 4510,
      "ящи": 4511,
      "ящий": 4512,
      "стр": 4513,
      "енном": 4514,
      "рат": 4515,
      "раскр": 4516,
      "рон": 4517,
      "рот": 4518,
      "роди": 4519,
      "ропера": 4520,
      "ростех": 4521,
      "ностей": 4522,
      "коли": 4523,
      "ковать": 4524,
      "редук": 4525,
      "речь": 4526,
      "реальные": 4527,
      "репли": 4528,
      "посо": 4529,
      "повест": 4530,
      "показы": 4531,
      "попов": 4532,
      "посове": 4533,
      "попросил": 4534,
      "послан": 4535,
      "потрат": 4536,
      "алей": 4537,
      "говых": 4538,
      "толь": 4539,
      "тому": 4540,
      "воло": 4541,
      "воду": 4542,
      "вокруг": 4543,
      "итии": 4544,
      "инти": 4545,
      "информи": 4546,
      "елены": 4547,
      "нах": 4548,
      "наме": 4549,
      "нашего": 4550,
      "найти": 4551,
      "начать": 4552,
      "накану": 4553,
      "насили": 4554,
      "ваются": 4555,
      "вард": 4556,
      "сои": 4557,
      "соф": 4558,
      "сона": 4559,
      "содерж": 4560,
      "сомн": 4561,
      "соединенных": 4562,
      "состоит": 4563,
      "собесед": 4564,
      "созовет": 4565,
      "сорат": 4566,
      "каста": 4567,
      "какие": 4568,
      "какого": 4569,
      "кии": 4570,
      "замен": 4571,
      "замуж": 4572,
      "запомн": 4573,
      "заголов": 4574,
      "домо": 4575,
      "доке": 4576,
      "достав": 4577,
      "дочер": 4578,
      "риск": 4579,
      "риус": 4580,
      "тах": 4581,
      "такую": 4582,
      "таджи": 4583,
      "цикло": 4584,
      "модер": 4585,
      "прожи": 4586,
      "процент": 4587,
      "профа": 4588,
      "прекращение": 4589,
      "небе": 4590,
      "нетом": 4591,
      "непря": 4592,
      "неизвестно": 4593,
      "неодно": 4594,
      "небес": 4595,
      "недоволь": 4596,
      "независимо": 4597,
      "либо": 4598,
      "лицен": 4599,
      "обработ": 4600,
      "отзы": 4601,
      "отреаги": 4602,
      "ейн": 4603,
      "выгод": 4604,
      "выход": 4605,
      "сси": 4606,
      "лок": 4607,
      "махо": 4608,
      "машина": 4609,
      "виду": 4610,
      "ельниц": 4611,
      "купл": 4612,
      "боре": 4613,
      "болот": 4614,
      "пао": 4615,
      "стами": 4616,
      "рым": 4617,
      "певе": 4618,
      "печень": 4619,
      "ровался": 4620,
      "ениям": 4621,
      "чаще": 4622,
      "фонд": 4623,
      "гаран": 4624,
      "природ": 4625,
      "применя": 4626,
      "привело": 4627,
      "исках": 4628,
      "искр": 4629,
      "тес": 4630,
      "мекси": 4631,
      "механи": 4632,
      "стой": 4633,
      "чев": 4634,
      "иимодели": 4635,
      "демии": 4636,
      "демон": 4637,
      "альбо": 4638,
      "альный": 4639,
      "альными": 4640,
      "весь": 4641,
      "влек": 4642,
      "влению": 4643,
      "разрабаты": 4644,
      "размещения": 4645,
      "подру": 4646,
      "поднима": 4647,
      "подкаста": 4648,
      "поднебес": 4649,
      "полного": 4650,
      "полностью": 4651,
      "диало": 4652,
      "диапа": 4653,
      "версия": 4654,
      "верховной": 4655,
      "ходов": 4656,
      "любой": 4657,
      "консер": 4658,
      "тым": 4659,
      "страли": 4660,
      "нуют": 4661,
      "граду": 4662,
      "границе": 4663,
      "ительницы": 4664,
      "туропера": 4665,
      "бая": 4666,
      "бака": 4667,
      "главу": 4668,
      "минал": 4669,
      "минэконом": 4670,
      "новения": 4671,
      "новенными": 4672,
      "сириус": 4673,
      "зоне": 4674,
      "лекар": 4675,
      "леонид": 4676,
      "менов": 4677,
      "алах": 4678,
      "чив": 4679,
      "чиком": 4680,
      "возоб": 4681,
      "возду": 4682,
      "возле": 4683,
      "первом": 4684,
      "перспек": 4685,
      "красно": 4686,
      "сег": 4687,
      "секу": 4688,
      "жеской": 4689,
      "делу": 4690,
      "делий": 4691,
      "ждали": 4692,
      "жид": 4693,
      "живший": 4694,
      "война": 4695,
      "войне": 4696,
      "которыми": 4697,
      "тельный": 4698,
      "тельным": 4699,
      "водитель": 4700,
      "деры": 4701,
      "инах": 4702,
      "иначе": 4703,
      "будем": 4704,
      "пересе": 4705,
      "учений": 4706,
      "женного": 4707,
      "женщи": 4708,
      "венза": 4709,
      "итиковал": 4710,
      "родине": 4711,
      "местных": 4712,
      "стую": 4713,
      "сообщениями": 4714,
      "владис": 4715,
      "властям": 4716,
      "близо": 4717,
      "тивной": 4718,
      "тивные": 4719,
      "тивным": 4720,
      "илакти": 4721,
      "октябре": 4722,
      "летчи": 4723,
      "летней": 4724,
      "летний": 4725,
      "российско": 4726,
      "метрах": 4727,
      "ничества": 4728,
      "другу": 4729,
      "экстре": 4730,
      "никам": 4731,
      "шается": 4732,
      "акции": 4733,
      "участвует": 4734,
      "имела": 4735,
      "торгово": 4736,
      "артро": 4737,
      "трево": 4738,
      "ционную": 4739,
      "елой": 4740,
      "действ": 4741,
      "газот": 4742,
      "емые": 4743,
      "следов": 4744,
      "компанией": 4745,
      "писали": 4746,
      "украинского": 4747,
      "украинские": 4748,
      "говорили": 4749,
      "банке": 4750,
      "стрел": 4751,
      "генпрокура": 4752,
      "област": 4753,
      "данной": 4754,
      "данный": 4755,
      "данными": 4756,
      "деталей": 4757,
      "ятти": 4758,
      "платы": 4759,
      "следит": 4760,
      "политике": 4761,
      "ранение": 4762,
      "стороне": 4763,
      "рублю": 4764,
      "мирного": 4765,
      "мирному": 4766,
      "военного": 4767,
      "военному": 4768,
      "джо": 4769,
      "знать": 4770,
      "менты": 4771,
      "стандар": 4772,
      "пич": 4773,
      "силу": 4774,
      "ствуют": 4775,
      "правления": 4776,
      "отметив": 4777,
      "проекти": 4778,
      "проекты": 4779,
      "рекла": 4780,
      "госдумы": 4781,
      "волны": 4782,
      "ложения": 4783,
      "смотр": 4784,
      "смогут": 4785,
      "межправитель": 4786,
      "миллион": 4787,
      "автоматиче": 4788,
      "гео": 4789,
      "геро": 4790,
      "пришло": 4791,
      "развитии": 4792,
      "выступил": 4793,
      "ментами": 4794,
      "чество": 4795,
      "продукция": 4796,
      "работают": 4797,
      "ine": 4798,
      "иноизраиль": 4799,
      "ликвида": 4800,
      "открытый": 4801,
      "главный": 4802,
      "главное": 4803,
      "китае": 4804,
      "рованных": 4805,
      "ждать": 4806,
      "производство": 4807,
      "производству": 4808,
      "агресс": 4809,
      "организаторов": 4810,
      "средств": 4811,
      "ализации": 4812,
      "делам": 4813,
      "делать": 4814,
      "развитию": 4815,
      "жизн": 4816,
      "креп": 4817,
      "церкви": 4818,
      "подписания": 4819,
      "палестиной": 4820,
      "палестиноизраиль": 4821,
      "снять": 4822,
      "спецслужб": 4823,
      "спецпроекте": 4824,
      "гражданских": 4825,
      "взять": 4826,
      "история": 4827,
      "элем": 4828,
      "энерги": 4829,
      "струк": 4830,
      "появ": 4831,
      "полиции": 4832,
      "находились": 4833,
      "находиться": 4834,
      "мужем": 4835,
      "целей": 4836,
      "проводит": 4837,
      "председателем": 4838,
      "делом": 4839,
      "конфликту": 4840,
      "чьи": 4841,
      "достижении": 4842,
      "бомбы": 4843,
      "разработке": 4844,
      "разработана": 4845,
      "случаях": 4846,
      "принятого": 4847,
      "прямо": 4848,
      "смеха": 4849,
      "последствий": 4850,
      "мошенниче": 4851,
      "мошенничества": 4852,
      "австрали": 4853,
      "повтор": 4854,
      "территори": 4855,
      "помощником": 4856,
      "двухлетней": 4857,
      "экономической": 4858,
      "экономических": 4859,
      "блока": 4860,
      "катара": 4861,
      "программ": 4862,
      "программа": 4863,
      "платить": 4864,
      "охра": 4865,
      "ссор": 4866,
      "старшим": 4867,
      "занимает": 4868,
      "палестинцев": 4869,
      "палестинское": 4870,
      "значился": 4871,
      "летами": 4872,
      "урегулирование": 4873,
      "миссию": 4874,
      "образование": 4875,
      "причин": 4876,
      "возрастом": 4877,
      "ющиеся": 4878,
      "ограничение": 4879,
      "освобожд": 4880,
      "направлении": 4881,
      "министерство": 4882,
      "министерстве": 4883,
      "биньямин": 4884,
      "оставаться": 4885,
      "бывшим": 4886,
      "сторонник": 4887,
      "сторонником": 4888,
      "dian": 4889,
      "брони": 4890,
      "ивана": 4891,
      "ланд": 4892,
      "поставки": 4893,
      "предложения": 4894,
      "написали": 4895,
      "защит": 4896,
      "эксперти": 4897,
      "группу": 4898,
      "множест": 4899,
      "сделки": 4900,
      "доктор": 4901,
      "выполняют": 4902,
      "выполняются": 4903,
      "форуме": 4904,
      "использовать": 4905,
      "использование": 4906,
      "участием": 4907,
      "британский": 4908,
      "топливо": 4909,
      "эффект": 4910,
      "аэро": 4911,
      "почему": 4912,
      "соцсети": 4913,
      "заседания": 4914,
      "примерно": 4915,
      "передачи": 4916,
      "влиянии": 4917,
      "противостоя": 4918,
      "вашингтона": 4919,
      "актер": 4920,
      "поколение": 4921,
      "востоке": 4922,
      "борьбы": 4923,
      "ющихся": 4924,
      "интернетресур": 4925,
      "структурами": 4926,
      "критиковал": 4927,
      "сильнее": 4928,
      "событий": 4929,
      "договоренность": 4930,
      "подготовки": 4931,
      "подготовку": 4932,
      "кандидатуру": 4933,
      "ключевую": 4934,
      "объектов": 4935,
      "продолжает": 4936,
      "спорта": 4937,
      "спортив": 4938,
      "ролики": 4939,
      "новое": 4940,
      "попытку": 4941,
      "происход": 4942,
      "происшестви": 4943,
      "ильхамом": 4944,
      "формиров": 4945,
      "собственное": 4946,
      "пользователей": 4947,
      "глубо": 4948,
      "корот": 4949,
      "поселка": 4950,
      "добрые": 4951,
      "боевых": 4952,
      "используют": 4953,
      "используемых": 4954,
      "любит": 4955,
      "семьям": 4956,
      "августе": 4957,
      "предполагается": 4958,
      "четырех": 4959,
      "справочнике": 4960,
      "ital": 4961,
      "свидет": 4962,
      "скандал": 4963,
      "члены": 4964,
      "покупа": 4965,
      "задержали": 4966,
      "обсуждения": 4967,
      "выразила": 4968,
      "визита": 4969,
      "музыкаль": 4970,
      "контракт": 4971,
      "крупнейших": 4972,
      "кампанию": 4973,
      "заняться": 4974,
      "занялся": 4975,
      "беспилотника": 4976,
      "пятницу": 4977,
      "усилий": 4978,
      "обмена": 4979,
      "конкурсе": 4980,
      "контейне": 4981,
      "доллара": 4982,
      "рассказала": 4983,
      "следующей": 4984,
      "условии": 4985,
      "условиях": 4986,
      "вшимся": 4987,
      "одесса": 4988,
      "угрозу": 4989,
      "инцид": 4990,
      "инцидентов": 4991,
      "кабмин": 4992,
      "любовь": 4993,
      "предложенному": 4994,
      "миллиард": 4995,
      "открытии": 4996,
      "официально": 4997,
      "запрещенных": 4998,
      "флорида": 4999,
      "дальше": 5000,
      "дальней": 5001,
      "окружа": 5002,
      "боливии": 5003,
      "суставов": 5004,
      "должностных": 5005,
      "выступление": 5006,
      "усилия": 5007,
      "мониторинг": 5008,
      "цифровой": 5009,
      "необходимо": 5010,
      "rosoft": 5011,
      "особу": 5012,
      "поручения": 5013,
      "привлечь": 5014,
      "девушки": 5015,
      "сигнала": 5016,
      "ближайшее": 5017,
      "бензина": 5018,
      "египта": 5019,
      "египте": 5020,
      "наркотиками": 5021,
      "звезд": 5022,
      "справед": 5023,
      "нападения": 5024,
      "депутат": 5025,
      "современной": 5026,
      "начальника": 5027,
      "сказано": 5028,
      "другая": 5029,
      "блэкаутом": 5030,
      "существует": 5031,
      "существующих": 5032,
      "повреждения": 5033,
      "подтвердил": 5034,
      "законодатель": 5035,
      "нелег": 5036,
      "звонил": 5037,
      "океана": 5038,
      "фраг": 5039,
      "февраля": 5040,
      "корабли": 5041,
      "намерены": 5042,
      "профилакти": 5043,
      "техас": 5044,
      "стоимости": 5045,
      "стоимость": 5046,
      "вероятно": 5047,
      "валюты": 5048,
      "ничеству": 5049,
      "региональной": 5050,
      "руководителя": 5051,
      "энергетической": 5052,
      "lookpress": 5053,
      "делегациями": 5054,
      "баланс": 5055,
      "баланса": 5056,
      "превратилась": 5057,
      "исследования": 5058,
      "news": 5059,
      "истин": 5060,
      "калифор": 5061,
      "мяг": 5062,
      "укрепл": 5063,
      "радио": 5064,
      "ровано": 5065,
      "реализу": 5066,
      "инград": 5067,
      "задача": 5068,
      "забастов": 5069,
      "пропадают": 5070,
      "провайдеров": 5071,
      "проблема": 5072,
      "скорее": 5073,
      "гарри": 5074,
      "декабря": 5075,
      "контакте": 5076,
      "конкретных": 5077,
      "ближнем": 5078,
      "бюрократи": 5079,
      "консультирует": 5080,
      "globallookpress": 5081,
      "съем": 5082,
      "стэнтон": 5083,
      "пострадали": 5084,
      "индекс": 5085,
      "награждения": 5086,
      "прибыли": 5087,
      "беспоко": 5088,
      "будете": 5089,
      "телеведущая": 5090,
      "саммите": 5091,
      "маленький": 5092,
      "предотвращения": 5093,
      "криптовалют": 5094,
      "выяснилось": 5095,
      "розничных": 5096,
      "магистраль": 5097,
      "бомбардировщи": 5098,
      "brics": 5099,
      "space": 5100,
      "ассоциации": 5101,
      "игрушек": 5102,
      "квота": 5103,
      "километров": 5104,
      "мгновенными": 5105,
      "снабжения": 5106,
      "франции": 5107,
      "число": 5108,
      "достаточно": 5109,
      "проходят": 5110,
      "думала": 5111,
      "павлин": 5112,
      "демократи": 5113,
      "основатель": 5114,
      "знамениты": 5115,
      "крушельниц": 5116,
      "брифинга": 5117,
      "подозрева": 5118,
      "guardian": 5119,
      "каникулы": 5120,
      "оборудования": 5121,
      "идентификации": 5122,
      "ошиб": 5123,
      "пилотов": 5124,
      "родованный": 5125,
      "поблагодарил": 5126,
      "понедельника": 5127,
      "индуст": 5128,
      "процентов": 5129,
      "обнародованный": 5130,
      "виргинии": 5131,
      "анатолий": 5132,
      "рассмотр": 5133,
      "военнослужа": 5134,
      "расставания": 5135,
      "режиссера": 5136,
      "земельных": 5137,
      "поручил": 5138,
      "динамику": 5139,
      "североатлантического": 5140,
      "религиоз": 5141,
      "здравоохранения": 5142,
      "microsoft": 5143,
      "xicoia": 5144,
      "впоследствии": 5145,
      "дальнобой": 5146,
      "спустя": 5147,
      "раскритиковал": 5148,
      "посоль": 5149,
      "посоветовал": 5150,
      "тольятти": 5151,
      "интим": 5152,
      "накануне": 5153,
      "докеров": 5154,
      "модерни": 5155,
      "профайле": 5156,
      "непрямые": 5157,
      "неоднократно": 5158,
      "махонин": 5159,
      "болотников": 5160,
      "искрен": 5161,
      "консерва": 5162,
      "минэкономразвития": 5163,
      "женщиной": 5164,
      "владислав": 5165,
      "экстреми": 5166,
      "агрессив": 5167,
      ",<": 5168,
      ">,<": 5169,
      "axi": 5170,
      "cap": 5171,
      "der": 5172,
      "f1": 5173,
      "fin": 5174,
      "fre": 5175,
      "fra": 5176,
      "gro": 5177,
      "ii": 5178,
      "is": 5179,
      "ieg": 5180,
      "ke": 5181,
      "ker": 5182,
      "mes": 5183,
      "no": 5184,
      "os": 5185,
      "pu": 5186,
      "rt": 5187,
      "ton": 5188,
      "ya": 5189,
      "аф": 5190,
      "ами": 5191,
      "аде": 5192,
      "аном": 5193,
      "аут": 5194,
      "апло": 5195,
      "абон": 5196,
      "асои": 5197,
      "бя": 5198,
      "бного": 5199,
      "бания": 5200,
      "вся": 5201,
      "вру": 5202,
      "вани": 5203,
      "вных": 5204,
      "вкие": 5205,
      "ваний": 5206,
      "виться": 5207,
      "ввс": 5208,
      "входя": 5209,
      "втяну": 5210,
      "вскоре": 5211,
      "вступил": 5212,
      "вмоскве": 5213,
      "гре": 5214,
      "гани": 5215,
      "гали": 5216,
      "гера": 5217,
      "глоб": 5218,
      "гвард": 5219,
      "дед": 5220,
      "диз": 5221,
      "дило": 5222,
      "дсн": 5223,
      "днк": 5224,
      "емой": 5225,
      "езда": 5226,
      "жь": 5227,
      "жали": 5228,
      "жала": 5229,
      "жный": 5230,
      "жского": 5231,
      "жила": 5232,
      "жению": 5233,
      "зал": 5234,
      "зла": 5235,
      "иер": 5236,
      "исте": 5237,
      "истреб": 5238,
      "йный": 5239,
      "кг": 5240,
      "кц": 5241,
      "кта": 5242,
      "кей": 5243,
      "кса": 5244,
      "кле": 5245,
      "кина": 5246,
      "кале": 5247,
      "клич": 5248,
      "клини": 5249,
      "лем": 5250,
      "ленты": 5251,
      "мили": 5252,
      "малы": 5253,
      "мчс": 5254,
      "нные": 5255,
      "нена": 5256,
      "нрав": 5257,
      "ощ": 5258,
      "ото": 5259,
      "ово": 5260,
      "оны": 5261,
      "оров": 5262,
      "оль": 5263,
      "окон": 5264,
      "опер": 5265,
      "остав": 5266,
      "охот": 5267,
      "оказалось": 5268,
      "пно": 5269,
      "пел": 5270,
      "рга": 5271,
      "рные": 5272,
      "ржи": 5273,
      "ср": 5274,
      "сда": 5275,
      "сился": 5276,
      "сине": 5277,
      "сдержи": 5278,
      "слиш": 5279,
      "свеж": 5280,
      "смарт": 5281,
      "спроекти": 5282,
      "тной": 5283,
      "тным": 5284,
      "ткен": 5285,
      "уна": 5286,
      "уки": 5287,
      "удо": 5288,
      "упре": 5289,
      "утра": 5290,
      "уже": 5291,
      "ужа": 5292,
      "улу": 5293,
      "упом": 5294,
      "устанавли": 5295,
      "уехать": 5296,
      "фер": 5297,
      "фру": 5298,
      "физи": 5299,
      "хэ": 5300,
      "хва": 5301,
      "хря": 5302,
      "хранение": 5303,
      "цало": 5304,
      "цкой": 5305,
      "чные": 5306,
      "чала": 5307,
      "чур": 5308,
      "чались": 5309,
      "шно": 5310,
      "шению": 5311,
      "шним": 5312,
      "ъалександра": 5313,
      "ьет": 5314,
      "ьми": 5315,
      "эки": 5316,
      "эск": 5317,
      "юан": 5318,
      "югк": 5319,
      "южной": 5320,
      "яну": 5321,
      "ясь": 5322,
      "ястре": 5323,
      "їни": 5324,
      "стиль": 5325,
      "енит": 5326,
      "енте": 5327,
      "енного": 5328,
      "ентификации": 5329,
      "раль": 5330,
      "рое": 5331,
      "роском": 5332,
      "родово": 5333,
      "ноча": 5334,
      "нополи": 5335,
      "нокоманду": 5336,
      "ностях": 5337,
      "номерах": 5338,
      "кош": 5339,
      "ковых": 5340,
      "космо": 5341,
      "косро": 5342,
      "реда": 5343,
      "репута": 5344,
      "пос": 5345,
      "пото": 5346,
      "поги": 5347,
      "посту": 5348,
      "потом": 5349,
      "показал": 5350,
      "посла": 5351,
      "пошло": 5352,
      "пошел": 5353,
      "посол": 5354,
      "пообещ": 5355,
      "попреж": 5356,
      "попыта": 5357,
      "анного": 5358,
      "анало": 5359,
      "аля": 5360,
      "гон": 5361,
      "горе": 5362,
      "госо": 5363,
      "гостех": 5364,
      "госпит": 5365,
      "тот": 5366,
      "торо": 5367,
      "тостроитель": 5368,
      "ери": 5369,
      "ерба": 5370,
      "водо": 5371,
      "воли": 5372,
      "воск": 5373,
      "востре": 5374,
      "иней": 5375,
      "инвест": 5376,
      "инкупить": 5377,
      "иннова": 5378,
      "инспек": 5379,
      "илан": 5380,
      "нав": 5381,
      "наи": 5382,
      "нар": 5383,
      "нац": 5384,
      "напо": 5385,
      "набу": 5386,
      "набра": 5387,
      "нацел": 5388,
      "нашла": 5389,
      "нашли": 5390,
      "нашем": 5391,
      "нагрузки": 5392,
      "вати": 5393,
      "василь": 5394,
      "вавшего": 5395,
      "вакц": 5396,
      "солю": 5397,
      "сокра": 5398,
      "сокращение": 5399,
      "кат": 5400,
      "качи": 5401,
      "кась": 5402,
      "карас": 5403,
      "както": 5404,
      "кими": 5405,
      "зак": 5406,
      "заме": 5407,
      "завод": 5408,
      "закры": 5409,
      "запуст": 5410,
      "загород": 5411,
      "зарабаты": 5412,
      "запустить": 5413,
      "застрахо": 5414,
      "заводе": 5415,
      "дополня": 5416,
      "дочных": 5417,
      "достался": 5418,
      "доменов": 5419,
      "нико": 5420,
      "таком": 5421,
      "море": 5422,
      "модел": 5423,
      "могу": 5424,
      "мосби": 5425,
      "миру": 5426,
      "михе": 5427,
      "лау": 5428,
      "лабра": 5429,
      "дав": 5430,
      "дам": 5431,
      "дателя": 5432,
      "пром": 5433,
      "прошел": 5434,
      "пройти": 5435,
      "продал": 5436,
      "проигра": 5437,
      "проходит": 5438,
      "продл": 5439,
      "прогно": 5440,
      "протест": 5441,
      "прочего": 5442,
      "превы": 5443,
      "пребыв": 5444,
      "неделе": 5445,
      "непосред": 5446,
      "нежского": 5447,
      "лировать": 5448,
      "образ": 5449,
      "обнару": 5450,
      "обменя": 5451,
      "анином": 5452,
      "отра": 5453,
      "отста": 5454,
      "отказ": 5455,
      "отчет": 5456,
      "отчу": 5457,
      "отдела": 5458,
      "отменя": 5459,
      "отправля": 5460,
      "отрыв": 5461,
      "откров": 5462,
      "отделом": 5463,
      "выг": 5464,
      "выну": 5465,
      "высказал": 5466,
      "вывести": 5467,
      "высме": 5468,
      "вышел": 5469,
      "выгляд": 5470,
      "сской": 5471,
      "лог": 5472,
      "лога": 5473,
      "мае": 5474,
      "мат": 5475,
      "масс": 5476,
      "маха": 5477,
      "тики": 5478,
      "типа": 5479,
      "тиров": 5480,
      "тизирован": 5481,
      "скон": 5482,
      "виды": 5483,
      "вицей": 5484,
      "викто": 5485,
      "емся": 5486,
      "думал": 5487,
      "духан": 5488,
      "куб": 5489,
      "куда": 5490,
      "куру": 5491,
      "куму": 5492,
      "кукуру": 5493,
      "бог": 5494,
      "бол": 5495,
      "бого": 5496,
      "пау": 5497,
      "пари": 5498,
      "панов": 5499,
      "патри": 5500,
      "ровала": 5501,
      "изуч": 5502,
      "чак": 5503,
      "часа": 5504,
      "гавани": 5505,
      "лько": 5506,
      "льго": 5507,
      "припа": 5508,
      "прият": 5509,
      "привет": 5510,
      "приор": 5511,
      "пригранич": 5512,
      "причастности": 5513,
      "привлек": 5514,
      "компози": 5515,
      "исполня": 5516,
      "искать": 5517,
      "теку": 5518,
      "тебе": 5519,
      "тепло": 5520,
      "месс": 5521,
      "мема": 5522,
      "мега": 5523,
      "столько": 5524,
      "прак": 5525,
      "судо": 5526,
      "сустав": 5527,
      "дев": 5528,
      "девиз": 5529,
      "альбом": 5530,
      "влением": 5531,
      "зирования": 5532,
      "мерцало": 5533,
      "разор": 5534,
      "разбира": 5535,
      "подвер": 5536,
      "подряд": 5537,
      "поле": 5538,
      "полит": 5539,
      "полин": 5540,
      "диаг": 5541,
      "ентских": 5542,
      "верить": 5543,
      "версии": 5544,
      "мура": 5545,
      "муста": 5546,
      "хождение": 5547,
      "концу": 5548,
      "предприня": 5549,
      "предсказ": 5550,
      "стране": 5551,
      "стради": 5552,
      "нулся": 5553,
      "граница": 5554,
      "рять": 5555,
      "ительности": 5556,
      "ительное": 5557,
      "турой": 5558,
      "батон": 5559,
      "главе": 5560,
      "мину": 5561,
      "минфи": 5562,
      "минпром": 5563,
      "новей": 5564,
      "новремен": 5565,
      "новую": 5566,
      "сидел": 5567,
      "сируется": 5568,
      "зового": 5569,
      "леген": 5570,
      "лебед": 5571,
      "мень": 5572,
      "меньше": 5573,
      "чика": 5574,
      "чике": 5575,
      "чимых": 5576,
      "евремен": 5577,
      "траги": 5578,
      "возглав": 5579,
      "возложения": 5580,
      "крае": 5581,
      "красо": 5582,
      "краси": 5583,
      "алом": 5584,
      "алон": 5585,
      "жебного": 5586,
      "няется": 5587,
      "серге": 5588,
      "серию": 5589,
      "сандей": 5590,
      "ждений": 5591,
      "живо": 5592,
      "общении": 5593,
      "аниями": 5594,
      "единствен": 5595,
      "войдут": 5596,
      "гул": 5597,
      "тельного": 5598,
      "тельное": 5599,
      "тельную": 5600,
      "водных": 5601,
      "казалась": 5602,
      "хай": 5603,
      "перехода": 5604,
      "перечисл": 5605,
      "ябрь": 5606,
      "учет": 5607,
      "учение": 5608,
      "учился": 5609,
      "учены": 5610,
      "жене": 5611,
      "жены": 5612,
      "ющая": 5613,
      "етар": 5614,
      "слухи": 5615,
      "служебного": 5616,
      "скла": 5617,
      "миниму": 5618,
      "одновремен": 5619,
      "слом": 5620,
      "слово": 5621,
      "фишин": 5622,
      "финополи": 5623,
      "россиивладимир": 5624,
      "местные": 5625,
      "своевремен": 5626,
      "сообщал": 5627,
      "тивном": 5628,
      "самозаня": 5629,
      "началось": 5630,
      "летнего": 5631,
      "летняя": 5632,
      "рганы": 5633,
      "российским": 5634,
      "российская": 5635,
      "строить": 5636,
      "правда": 5637,
      "сках": 5638,
      "метры": 5639,
      "друз": 5640,
      "дружеской": 5641,
      "боту": 5642,
      "президентства": 5643,
      "экстради": 5644,
      "ителях": 5645,
      "акцион": 5646,
      "аккую": 5647,
      "акционе": 5648,
      "аккуму": 5649,
      "имя": 5650,
      "импич": 5651,
      "арма": 5652,
      "армию": 5653,
      "спейн": 5654,
      "украина": 5655,
      "україни": 5656,
      "должна": 5657,
      "осла": 5658,
      "основой": 5659,
      "рфв": 5660,
      "рья": 5661,
      "рьков": 5662,
      "свиней": 5663,
      "здание": 5664,
      "парков": 5665,
      "писы": 5666,
      "писал": 5667,
      "писем": 5668,
      "украинской": 5669,
      "украинская": 5670,
      "ственное": 5671,
      "заявили": 5672,
      "эксцентри": 5673,
      "нальчике": 5674,
      "банки": 5675,
      "банком": 5676,
      "вторая": 5677,
      "велден": 5678,
      "купян": 5679,
      "генпрокуро": 5680,
      "областей": 5681,
      "детского": 5682,
      "коллед": 5683,
      "ранения": 5684,
      "никто": 5685,
      "щика": 5686,
      "польше": 5687,
      "министром": 5688,
      "получения": 5689,
      "ордж": 5690,
      "финцер": 5691,
      "помоему": 5692,
      "врача": 5693,
      "джордж": 5694,
      "вопросу": 5695,
      "вопросов": 5696,
      "обещает": 5697,
      "значимых": 5698,
      "оператором": 5699,
      "операторы": 5700,
      "оперативно": 5701,
      "большим": 5702,
      "крыла": 5703,
      "техники": 5704,
      "казался": 5705,
      "пив": 5706,
      "пище": 5707,
      "пишет": 5708,
      "сились": 5709,
      "силукраинывсу": 5710,
      "сели": 5711,
      "отметила": 5712,
      "рабочей": 5713,
      "сотрудниками": 5714,
      "возможных": 5715,
      "возможным": 5716,
      "портф": 5717,
      "известный": 5718,
      "народной": 5719,
      "лендс": 5720,
      "сете": 5721,
      "сетях": 5722,
      "волнуют": 5723,
      "правовую": 5724,
      "основных": 5725,
      "основная": 5726,
      "основными": 5727,
      "мнения": 5728,
      "мнение": 5729,
      "регионов": 5730,
      "евросоюза": 5731,
      "миллионе": 5732,
      "миллионы": 5733,
      "действиях": 5734,
      "авторов": 5735,
      "голосу": 5736,
      "назвала": 5737,
      "сового": 5738,
      "вшись": 5739,
      "вшему": 5740,
      "рынков": 5741,
      "объявления": 5742,
      "сын": 5743,
      "сына": 5744,
      "белгород": 5745,
      "являются": 5746,
      "поддержки": 5747,
      "бление": 5748,
      "добавля": 5749,
      "продукты": 5750,
      "продукцию": 5751,
      "and": 5752,
      "ance": 5753,
      "двига": 5754,
      "корпу": 5755,
      "коррек": 5756,
      "главнокоманду": 5757,
      "администрация": 5758,
      "зерновых": 5759,
      "китаем": 5760,
      "рованные": 5761,
      "судя": 5762,
      "конфер": 5763,
      "тренды": 5764,
      "призван": 5765,
      "производстве": 5766,
      "производители": 5767,
      "организаций": 5768,
      "обост": 5769,
      "газой": 5770,
      "еном": 5771,
      "карди": 5772,
      "тических": 5773,
      "тическим": 5774,
      "вицепрезидент": 5775,
      "вицемисс": 5776,
      "цына": 5777,
      "взаимодействовать": 5778,
      "усали": 5779,
      "готовит": 5780,
      "пыталась": 5781,
      "подойти": 5782,
      "торами": 5783,
      "параметры": 5784,
      "подписи": 5785,
      "подписан": 5786,
      "снял": 5787,
      "частных": 5788,
      "частной": 5789,
      "путиным": 5790,
      "спецна": 5791,
      "спецпослан": 5792,
      "энергии": 5793,
      "заключения": 5794,
      "заключенные": 5795,
      "заключенными": 5796,
      "заключенным": 5797,
      "несколькими": 5798,
      "факт": 5799,
      "фамиль": 5800,
      "потребления": 5801,
      "провоци": 5802,
      "внутреннего": 5803,
      "юмора": 5804,
      "тонн": 5805,
      "находился": 5806,
      "обвинению": 5807,
      "людения": 5808,
      "герб": 5809,
      "денеж": 5810,
      "цели": 5811,
      "существен": 5812,
      "байд": 5813,
      "обеспечение": 5814,
      "конфликте": 5815,
      "разработкой": 5816,
      "случаев": 5817,
      "активный": 5818,
      "приняли": 5819,
      "принять": 5820,
      "мошенников": 5821,
      "контролем": 5822,
      "хамасподписали": 5823,
      "тюрьма": 5824,
      "ванные": 5825,
      "федоров": 5826,
      "обязан": 5827,
      "обращения": 5828,
      "предпоч": 5829,
      "территорию": 5830,
      "помощника": 5831,
      "иностранным": 5832,
      "федеральной": 5833,
      "федеральная": 5834,
      "двухбло": 5835,
      "агентство": 5836,
      "деньгами": 5837,
      "шутить": 5838,
      "поставл": 5839,
      "называ": 5840,
      "называет": 5841,
      "называется": 5842,
      "замглавы": 5843,
      "старший": 5844,
      "разуме": 5845,
      "краткосро": 5846,
      "участвовали": 5847,
      "окончания": 5848,
      "кадры": 5849,
      "кадрах": 5850,
      "причины": 5851,
      "подчерки": 5852,
      "возраста": 5853,
      "logi": 5854,
      "постели": 5855,
      "поража": 5856,
      "поражения": 5857,
      "направлена": 5858,
      "видения": 5859,
      "самый": 5860,
      "представляют": 5861,
      "израильской": 5862,
      "израильских": 5863,
      "большом": 5864,
      "iva": 5865,
      "район": 5866,
      "отмечает": 5867,
      "авиакомпании": 5868,
      "бросил": 5869,
      "инфля": 5870,
      "всей": 5871,
      "борту": 5872,
      "газпрому": 5873,
      "эксперим": 5874,
      "связей": 5875,
      "секрет": 5876,
      "группи": 5877,
      "потребности": 5878,
      "желание": 5879,
      "сделал": 5880,
      "творч": 5881,
      "выполнять": 5882,
      "использованием": 5883,
      "телевидения": 5884,
      "участие": 5885,
      "британского": 5886,
      "посредничест": 5887,
      "дорог": 5888,
      "проснулся": 5889,
      "отец": 5890,
      "фондо": 5891,
      "ходим": 5892,
      "северных": 5893,
      "северной": 5894,
      "передать": 5895,
      "передаче": 5896,
      "специальных": 5897,
      "специальной": 5898,
      "влияющие": 5899,
      "актеры": 5900,
      "баллот": 5901,
      "танцу": 5902,
      "хиру": 5903,
      "этими": 5904,
      "восточном": 5905,
      "пункта": 5906,
      "баронета": 5907,
      "баронетом": 5908,
      "долгого": 5909,
      "утверждал": 5910,
      "утверждением": 5911,
      "маунселхауса": 5912,
      "сенат": 5913,
      "построить": 5914,
      "месяц": 5915,
      "ключевой": 5916,
      "объекты": 5917,
      "парламента": 5918,
      "генерального": 5919,
      "заложники": 5920,
      "продолжают": 5921,
      "chno": 5922,
      "ехали": 5923,
      "малого": 5924,
      "снижение": 5925,
      "спортом": 5926,
      "новороссий": 5927,
      "попытался": 5928,
      "надеж": 5929,
      "надеется": 5930,
      "надеемся": 5931,
      "создать": 5932,
      "киберпреступл": 5933,
      "получив": 5934,
      "формирование": 5935,
      "государственных": 5936,
      "пользователям": 5937,
      "диспет": 5938,
      "дисментами": 5939,
      "силовых": 5940,
      "силовыми": 5941,
      "уверенности": 5942,
      "шуток": 5943,
      "короле": 5944,
      "поселке": 5945,
      "готово": 5946,
      "готовы": 5947,
      "добились": 5948,
      "боеприпа": 5949,
      "стабильность": 5950,
      "комментаторы": 5951,
      "стратегии": 5952,
      "соблюдались": 5953,
      "артистки": 5954,
      "платформе": 5955,
      "платформу": 5956,
      "agram": 5957,
      "itz": 5958,
      "земли": 5959,
      "членов": 5960,
      "мигрантов": 5961,
      "выпуск": 5962,
      "альянс": 5963,
      "ведомства": 5964,
      "биографи": 5965,
      "кампании": 5966,
      "функциони": 5967,
      "системами": 5968,
      "соцсетей": 5969,
      "опубликован": 5970,
      "незаконное": 5971,
      "песен": 5972,
      "песней": 5973,
      "вудлендс": 5974,
      "итартасс": 5975,
      "другое": 5976,
      "другом": 5977,
      "другому": 5978,
      "отечественные": 5979,
      "искусства": 5980,
      "искусствен": 5981,
      "times": 5982,
      "абду": 5983,
      "абсолю": 5984,
      "внимания": 5985,
      "временем": 5986,
      "калин": 5987,
      "оказывает": 5988,
      "инвестиции": 5989,
      "настоящий": 5990,
      "выявление": 5991,
      "певица": 5992,
      "певицы": 5993,
      "любовниц": 5994,
      "предложено": 5995,
      "предложенного": 5996,
      "расшир": 5997,
      "миллиарда": 5998,
      "республиканской": 5999,
      "республиканцев": 6000,
      "официальные": 6001,
      "партнером": 6002,
      "эффективное": 6003,
      "соответствующего": 6004,
      "довольно": 6005,
      "обязательствам": 6006,
      "кибермошеннических": 6007,
      "кибермошенничеству": 6008,
      "губернатор": 6009,
      "агентом": 6010,
      "факту": 6011,
      "сохран": 6012,
      "выполнению": 6013,
      "самая": 6014,
      "рассказывал": 6015,
      "политическими": 6016,
      "выступлений": 6017,
      "обеспечивает": 6018,
      "обеспечивая": 6019,
      "бюджет": 6020,
      "цифровых": 6021,
      "исчезну": 6022,
      "апреля": 6023,
      "мальчика": 6024,
      "мировым": 6025,
      "супруга": 6026,
      "ближайшие": 6027,
      "узбекистана": 6028,
      "баронету": 6029,
      "аристократ": 6030,
      "аналитики": 6031,
      "наркотики": 6032,
      "онлайнмошенничества": 6033,
      "вклад": 6034,
      "органа": 6035,
      "органы": 6036,
      "сцене": 6037,
      "сведениям": 6038,
      "улуч": 6039,
      "фрида": 6040,
      "фриды": 6041,
      "чрезмер": 6042,
      "подачи": 6043,
      "пограничники": 6044,
      "проверки": 6045,
      "практикой": 6046,
      "полномочи": 6047,
      "владельцы": 6048,
      "начальник": 6049,
      "помогают": 6050,
      "техническим": 6051,
      "основанная": 6052,
      "блэкаут": 6053,
      "взяла": 6054,
      "источники": 6055,
      "обвиняют": 6056,
      "освободить": 6057,
      "потребительского": 6058,
      "хозяйство": 6059,
      "звон": 6060,
      "мвд": 6061,
      "осужд": 6062,
      "спортсмен": 6063,
      "умные": 6064,
      "увелич": 6065,
      "феврале": 6066,
      "раскрыл": 6067,
      "понял": 6068,
      "понятно": 6069,
      "гостини": 6070,
      "воронежского": 6071,
      "состава": 6072,
      "запуска": 6073,
      "невесты": 6074,
      "садку": 6075,
      "избирался": 6076,
      "исполнения": 6077,
      "учреждений": 6078,
      "самолетов": 6079,
      "самолетостроитель": 6080,
      "принадлеж": 6081,
      "принадлежа": 6082,
      "связанные": 6083,
      "знакомств": 6084,
      "региональных": 6085,
      "казахстана": 6086,
      "корпоративных": 6087,
      "достигну": 6088,
      "огромный": 6089,
      "нарушителях": 6090,
      "особняка": 6091,
      "осуществляет": 6092,
      "слышал": 6093,
      "слышны": 6094,
      "контейнеры": 6095,
      "катастрофы": 6096,
      "вшиеся": 6097,
      "двое": 6098,
      "двор": 6099,
      "джизак": 6100,
      "остров": 6101,
      "оценку": 6102,
      "укреп": 6103,
      "реализо": 6104,
      "поттера": 6105,
      "поток2": 6106,
      "составит": 6107,
      "зайцев": 6108,
      "закончился": 6109,
      "провайдеры": 6110,
      "проблемой": 6111,
      "газификации": 6112,
      "дерево": 6113,
      "декабре": 6114,
      "диверси": 6115,
      "диверсии": 6116,
      "коллеги": 6117,
      "молодежи": 6118,
      "правильно": 6119,
      "правильный": 6120,
      "telegramканалдсн": 6121,
      "сравнению": 6122,
      "гуманитарным": 6123,
      "промышленности": 6124,
      "предвыборной": 6125,
      "вспоминал": 6126,
      "клум": 6127,
      "клуба": 6128,
      "талан": 6129,
      "тетушки": 6130,
      "тетушка": 6131,
      "удалось": 6132,
      "космети": 6133,
      "реакторов": 6134,
      "половин": 6135,
      "поклад": 6136,
      "поклада": 6137,
      "населенных": 6138,
      "загадочных": 6139,
      "прозву": 6140,
      "высказы": 6141,
      "случился": 6142,
      "поделилась": 6143,
      "подписано": 6144,
      "полноцен": 6145,
      "фирмы": 6146,
      "начинать": 6147,
      "аренду": 6148,
      "черноморска": 6149,
      "пресссекретарь": 6150,
      "январь": 6151,
      "масштабный": 6152,
      "автоматизирован": 6153,
      "meta": 6154,
      "пояснил": 6155,
      "пояснили": 6156,
      "ожидаем": 6157,
      "финансирования": 6158,
      "противодействии": 6159,
      "совершить": 6160,
      "автомобиля": 6161,
      "надзора": 6162,
      "статистики": 6163,
      "оценивалось": 6164,
      "гнезда": 6165,
      "звено": 6166,
      "здоровье": 6167,
      "игрок": 6168,
      "нанесли": 6169,
      "одино": 6170,
      "опасным": 6171,
      "успела": 6172,
      "цветоч": 6173,
      "шансон": 6174,
      "эйткен": 6175,
      "росатом": 6176,
      "реестром": 6177,
      "соотечественников": 6178,
      "заведующего": 6179,
      "заболеваний": 6180,
      "донецкой": 6181,
      "таможен": 6182,
      "протяжении": 6183,
      "присутствовал": 6184,
      "развивать": 6185,
      "различных": 6186,
      "безуспе": 6187,
      "синопе": 6188,
      "пересекли": 6189,
      "телекан": 6190,
      "оснащение": 6191,
      "паспорте": 6192,
      "соблюдают": 6193,
      "читайтев": 6194,
      "креативных": 6195,
      "сегодняшний": 6196,
      "документах": 6197,
      "высокопоставл": 6198,
      "предоставляется": 6199,
      "подозрительных": 6200,
      "чрезвычайной": 6201,
      "ежедневные": 6202,
      "spieg": 6203,
      "techno": 6204,
      "анон": 6205,
      "ираке": 6206,
      "мэра": 6207,
      "нпф": 6208,
      "смерти": 6209,
      "христенко": 6210,
      "стенда": 6211,
      "запада": 6212,
      "добычи": 6213,
      "процеду": 6214,
      "пресечения": 6215,
      "претендентов": 6216,
      "неудачной": 6217,
      "отправился": 6218,
      "паруби": 6219,
      "приносили": 6220,
      "коммунист": 6221,
      "столице": 6222,
      "субботу": 6223,
      "различия": 6224,
      "предлагает": 6225,
      "бабушки": 6226,
      "ляторных": 6227,
      "следовать": 6228,
      "объявлений": 6229,
      "instagram": 6230,
      "иноагентов": 6231,
      "снятие": 6232,
      "телефонного": 6233,
      "agement": 6234,
      "настоящее": 6235,
      "сферах": 6236,
      "футболист": 6237,
      "одобрения": 6238,
      "упоминается": 6239,
      "ньюйорка": 6240,
      "лесбиянки": 6241,
      "jdk": 6242,
      "management": 6243,
      "двинуть": 6244,
      "келси": 6245,
      "кварти": 6246,
      "сбежал": 6247,
      "количество": 6248,
      "редукторов": 6249,
      "повестки": 6250,
      "волошина": 6251,
      "дочерью": 6252,
      "таджики": 6253,
      "недовольных": 6254,
      "лицензия": 6255,
      "обработки": 6256,
      "гаранти": 6257,
      "механизм": 6258,
      "демонстри": 6259,
      "поднебесную": 6260,
      "секунд": 6261,
      "жидкость": 6262,
      "действительности": 6263,
      "генпрокуратура": 6264,
      "областной": 6265,
      "межправительственного": 6266,
      "автоматический": 6267,
      "ликвидация": 6268,
      "структур": 6269,
      "появятся": 6270,
      "мошенническим": 6271,
      "австралии": 6272,
      "экспертизу": 6273,
      "множество": 6274,
      "противостояние": 6275,
      "интернетресурсам": 6276,
      "музыкальную": 6277,
      "инцидент": 6278,
      "сигналами": 6279,
      "справедливо": 6280,
      "spacex": 6281,
      "крушельницкий": 6282,
      "экстремистской": 6283,
      "axiom": 6284,
      "capital": 6285,
      "fray": 6286,
      "group": 6287,
      "афгани": 6288,
      "аутентификации": 6289,
      "аплодисментами": 6290,
      "абонентских": 6291,
      "вкиеве": 6292,
      "гвардии": 6293,
      "дизеля": 6294,
      "иерусали": 6295,
      "кличке": 6296,
      "нравится": 6297,
      "оконча": 6298,
      "слишком": 6299,
      "упомяну": 6300,
      "устанавливать": 6301,
      "хвата": 6302,
      "экипа": 6303,
      "эскала": 6304,
      "юаня": 6305,
      "роскомнадзора": 6306,
      "родовое": 6307,
      "потоков": 6308,
      "попрежнему": 6309,
      "аналоги": 6310,
      "госорганы": 6311,
      "востребов": 6312,
      "инвесторов": 6313,
      "карасин": 6314,
      "застраховать": 6315,
      "мосбиржи": 6316,
      "михеев": 6317,
      "превыша": 6318,
      "отменял": 6319,
      "высмеивать": 6320,
      "выглядит": 6321,
      "махач": 6322,
      "духанинкупить": 6323,
      "приграничье": 6324,
      "мерцалова": 6325,
      "предсказу": 6326,
      "минфином": 6327,
      "лебедев": 6328,
      "сергея": 6329,
      "одновременно": 6330,
      "фишинговых": 6331,
      "акционерного": 6332,
      "аккумуляторных": 6333,
      "финцерт": 6334,
      "миллионера": 6335,
      "спецпосланник": 6336,
      "хамасподписалипервую": 6337,
      "двухблочной": 6338,
      "logies": 6339,
      "творчества": 6340,
      "баллоти": 6341,
      "киберпреступлениям": 6342,
      "самолетостроительного": 6343,
      "telegramканалдснс": 6344,
      "автоматизированной": 6345,
      "spiegel": 6346,
      "technologies": 6347,
      "афганистане": 6348,
      "17": 6349,
      "19": 6350,
      "25": 6351,
      "aer": 6352,
      "ain": 6353,
      "ba": 6354,
      "ci": 6355,
      "can": 6356,
      "creat": 6357,
      "dra": 6358,
      "dag": 6359,
      "fk": 6360,
      "fitz": 6361,
      "great": 6362,
      "har": 6363,
      "iam": 6364,
      "jo": 6365,
      "kat": 6366,
      "kfor": 6367,
      "ld": 6368,
      "lic": 6369,
      "m11": 6370,
      "ni": 6371,
      "nla": 6372,
      "ot": 6373,
      "ovi": 6374,
      "pal": 6375,
      "q20": 6376,
      "ron": 6377,
      "rst": 6378,
      "rus": 6379,
      "rq20": 6380,
      "she": 6381,
      "tes": 6382,
      "tle": 6383,
      "wal": 6384,
      "wit": 6385,
      "wwe": 6386,
      "yor": 6387,
      "ао": 6388,
      "ада": 6389,
      "аста": 6390,
      "ация": 6391,
      "аться": 6392,
      "азия": 6393,
      "бель": 6394,
      "бные": 6395,
      "браз": 6396,
      "блю": 6397,
      "бина": 6398,
      "вв": 6399,
      "вме": 6400,
      "вный": 6401,
      "вало": 6402,
      "вета": 6403,
      "вход": 6404,
      "вании": 6405,
      "валась": 6406,
      "вряд": 6407,
      "вtelegram": 6408,
      "встать": 6409,
      "всерьез": 6410,
      "вtelegramканале": 6411,
      "вьет": 6412,
      "впольше": 6413,
      "гб": 6414,
      "гд": 6415,
      "где": 6416,
      "гент": 6417,
      "гром": 6418,
      "дре": 6419,
      "дин": 6420,
      "дала": 6421,
      "дана": 6422,
      "дца": 6423,
      "дцев": 6424,
      "дите": 6425,
      "ема": 6426,
      "жков": 6427,
      "жало": 6428,
      "жная": 6429,
      "жителей": 6430,
      "жились": 6431,
      "жите": 6432,
      "жом": 6433,
      "зин": 6434,
      "зился": 6435,
      "зале": 6436,
      "збру": 6437,
      "зелены": 6438,
      "зенит": 6439,
      "ип": 6440,
      "ир": 6441,
      "ией": 6442,
      "ипа": 6443,
      "иван": 6444,
      "ирование": 6445,
      "ицами": 6446,
      "йской": 6447,
      "йох": 6448,
      "йское": 6449,
      "км": 6450,
      "ква": 6451,
      "кты": 6452,
      "крем": 6453,
      "кеты": 6454,
      "кват": 6455,
      "кчей": 6456,
      "ление": 6457,
      "лина": 6458,
      "лкой": 6459,
      "лур": 6460,
      "мк": 6461,
      "мел": 6462,
      "мель": 6463,
      "мета": 6464,
      "мита": 6465,
      "мпи": 6466,
      "мэр": 6467,
      "мбар": 6468,
      "мсообщает": 6469,
      "мзвон": 6470,
      "нра": 6471,
      "нение": 6472,
      "нены": 6473,
      "нгов": 6474,
      "ндия": 6475,
      "нхл": 6476,
      "ол": 6477,
      "ори": 6478,
      "опред": 6479,
      "огра": 6480,
      "очи": 6481,
      "оном": 6482,
      "офор": 6483,
      "оправ": 6484,
      "опубли": 6485,
      "органи": 6486,
      "оказать": 6487,
      "означает": 6488,
      "пры": 6489,
      "пту": 6490,
      "пили": 6491,
      "пита": 6492,
      "пиль": 6493,
      "пце": 6494,
      "птр": 6495,
      "петар": 6496,
      "рка": 6497,
      "рже": 6498,
      "рвати": 6499,
      "сза": 6500,
      "ску": 6501,
      "сбо": 6502,
      "сму": 6503,
      "спу": 6504,
      "смы": 6505,
      "сдерж": 6506,
      "срасс": 6507,
      "сбер": 6508,
      "сним": 6509,
      "снима": 6510,
      "силось": 6511,
      "сначала": 6512,
      "снаря": 6513,
      "сбере": 6514,
      "свыше": 6515,
      "смысл": 6516,
      "смяг": 6517,
      "сеном": 6518,
      "спровоци": 6519,
      "тить": 6520,
      "тение": 6521,
      "тенные": 6522,
      "уя": 6523,
      "уит": 6524,
      "ула": 6525,
      "ума": 6526,
      "уви": 6527,
      "упа": 6528,
      "устра": 6529,
      "удел": 6530,
      "уедин": 6531,
      "угу": 6532,
      "устав": 6533,
      "уник": 6534,
      "утоп": 6535,
      "ушел": 6536,
      "улы": 6537,
      "упразд": 6538,
      "ухуд": 6539,
      "фы": 6540,
      "фбр": 6541,
      "фразу": 6542,
      "фрон": 6543,
      "хро": 6544,
      "хала": 6545,
      "хью": 6546,
      "хив": 6547,
      "цель": 6548,
      "цов": 6549,
      "чо": 6550,
      "чали": 6551,
      "чности": 6552,
      "чало": 6553,
      "чвен": 6554,
      "чное": 6555,
      "ченко": 6556,
      "читы": 6557,
      "шком": 6558,
      "штр": 6559,
      "шкин": 6560,
      "щем": 6561,
      "щного": 6562,
      "щены": 6563,
      "ые": 6564,
      "ыгры": 6565,
      "ылок": 6566,
      "эмбар": 6567,
      "юсь": 6568,
      "югово": 6569,
      "юрф": 6570,
      "юге": 6571,
      "южу": 6572,
      "яет": 6573,
      "яции": 6574,
      "ярии": 6575,
      "ённые": 6576,
      "стров": 6577,
      "стек": 6578,
      "стина": 6579,
      "стями": 6580,
      "енц": 6581,
      "енцию": 6582,
      "ендже": 6583,
      "енсеном": 6584,
      "расти": 6585,
      "раиль": 6586,
      "расту": 6587,
      "рого": 6588,
      "рово": 6589,
      "рома": 6590,
      "роско": 6591,
      "роски": 6592,
      "нови": 6593,
      "ноги": 6594,
      "нобел": 6595,
      "новым": 6596,
      "ношение": 6597,
      "номии": 6598,
      "нович": 6599,
      "номера": 6600,
      "кового": 6601,
      "коридо": 6602,
      "колич": 6603,
      "кошек": 6604,
      "костенко": 6605,
      "комиссии": 6606,
      "рест": 6607,
      "рево": 6608,
      "реди": 6609,
      "рект": 6610,
      "ремон": 6611,
      "поро": 6612,
      "пола": 6613,
      "пораз": 6614,
      "побе": 6615,
      "повто": 6616,
      "послуж": 6617,
      "постеп": 6618,
      "покры": 6619,
      "повести": 6620,
      "поступ": 6621,
      "попрос": 6622,
      "поэта": 6623,
      "поиску": 6624,
      "положен": 6625,
      "поехал": 6626,
      "пожизн": 6627,
      "посадку": 6628,
      "ант": 6629,
      "анну": 6630,
      "анской": 6631,
      "анализа": 6632,
      "анкла": 6633,
      "антова": 6634,
      "анссо": 6635,
      "анализ": 6636,
      "анализи": 6637,
      "алан": 6638,
      "алии": 6639,
      "аллур": 6640,
      "горо": 6641,
      "горя": 6642,
      "гоня": 6643,
      "госте": 6644,
      "госкор": 6645,
      "тори": 6646,
      "тону": 6647,
      "торг": 6648,
      "тологи": 6649,
      "тогда": 6650,
      "ерии": 6651,
      "вор": 6652,
      "вому": 6653,
      "воева": 6654,
      "вошли": 6655,
      "етент": 6656,
      "инж": 6657,
      "инк": 6658,
      "инсай": 6659,
      "институ": 6660,
      "елинк": 6661,
      "нара": 6662,
      "наше": 6663,
      "наби": 6664,
      "национ": 6665,
      "наций": 6666,
      "направил": 6667,
      "насиль": 6668,
      "наук": 6669,
      "наоборот": 6670,
      "направила": 6671,
      "наyoutube": 6672,
      "накорот": 6673,
      "науки": 6674,
      "вах": 6675,
      "вающие": 6676,
      "вающую": 6677,
      "сомо": 6678,
      "сопрово": 6679,
      "собой": 6680,
      "сократ": 6681,
      "сорев": 6682,
      "содруж": 6683,
      "енией": 6684,
      "как": 6685,
      "каст": 6686,
      "кара": 6687,
      "каме": 6688,
      "какой": 6689,
      "камеры": 6690,
      "какот": 6691,
      "кисл": 6692,
      "киев": 6693,
      "зар": 6694,
      "зано": 6695,
      "зами": 6696,
      "заку": 6697,
      "зача": 6698,
      "заказ": 6699,
      "забот": 6700,
      "зацию": 6701,
      "забра": 6702,
      "запрос": 6703,
      "затяну": 6704,
      "загран": 6705,
      "заинтересов": 6706,
      "затяж": 6707,
      "зачитал": 6708,
      "завя": 6709,
      "зарубе": 6710,
      "задержать": 6711,
      "загря": 6712,
      "закреп": 6713,
      "дого": 6714,
      "доль": 6715,
      "довал": 6716,
      "домов": 6717,
      "добро": 6718,
      "дожествен": 6719,
      "донского": 6720,
      "ниж": 6721,
      "нис": 6722,
      "ниш": 6723,
      "ния": 6724,
      "ниел": 6725,
      "нича": 6726,
      "нической": 6727,
      "николо": 6728,
      "риза": 6729,
      "риат": 6730,
      "рирования": 6731,
      "тар": 6732,
      "таева": 6733,
      "ташу": 6734,
      "таилан": 6735,
      "цик": 6736,
      "моти": 6737,
      "мону": 6738,
      "може": 6739,
      "мовой": 6740,
      "моего": 6741,
      "мобиль": 6742,
      "мораль": 6743,
      "мией": 6744,
      "мином": 6745,
      "лаев": 6746,
      "дай": 6747,
      "дами": 6748,
      "дама": 6749,
      "датом": 6750,
      "давай": 6751,
      "пропри": 6752,
      "проте": 6753,
      "продел": 6754,
      "простоя": 6755,
      "проявля": 6756,
      "провели": 6757,
      "прошли": 6758,
      "профиль": 6759,
      "проведение": 6760,
      "продвижения": 6761,
      "проинформи": 6762,
      "проанализи": 6763,
      "руются": 6764,
      "русоф": 6765,
      "преда": 6766,
      "прекра": 6767,
      "предом": 6768,
      "премию": 6769,
      "нера": 6770,
      "непо": 6771,
      "непре": 6772,
      "некомп": 6773,
      "нестре": 6774,
      "несла": 6775,
      "некое": 6776,
      "небольшое": 6777,
      "независи": 6778,
      "непту": 6779,
      "лица": 6780,
      "лирования": 6781,
      "лишать": 6782,
      "обии": 6783,
      "обстоя": 6784,
      "обстоит": 6785,
      "обучение": 6786,
      "анибудь": 6787,
      "оты": 6788,
      "отель": 6789,
      "оттом": 6790,
      "отреагировать": 6791,
      "отведет": 6792,
      "откуда": 6793,
      "отказался": 6794,
      "ейк": 6795,
      "выро": 6796,
      "вывод": 6797,
      "вызы": 6798,
      "выкуп": 6799,
      "выключ": 6800,
      "выхода": 6801,
      "выходе": 6802,
      "вышед": 6803,
      "вывез": 6804,
      "выклады": 6805,
      "выходим": 6806,
      "выдвинуть": 6807,
      "сского": 6808,
      "ссср": 6809,
      "сселинк": 6810,
      "лон": 6811,
      "лова": 6812,
      "лозу": 6813,
      "мативно": 6814,
      "тием": 6815,
      "тистами": 6816,
      "вик": 6817,
      "визи": 6818,
      "видом": 6819,
      "видели": 6820,
      "визации": 6821,
      "вированных": 6822,
      "ельствуют": 6823,
      "емерии": 6824,
      "духов": 6825,
      "духовной": 6826,
      "куш": 6827,
      "бора": 6828,
      "боится": 6829,
      "бориса": 6830,
      "бочка": 6831,
      "паса": 6832,
      "падает": 6833,
      "патологи": 6834,
      "стату": 6835,
      "старой": 6836,
      "статей": 6837,
      "рывов": 6838,
      "педа": 6839,
      "песн": 6840,
      "пекина": 6841,
      "пешком": 6842,
      "ровки": 6843,
      "сляции": 6844,
      "сах": 6845,
      "сает": 6846,
      "избе": 6847,
      "издерж": 6848,
      "избра": 6849,
      "изобра": 6850,
      "изнаши": 6851,
      "изделий": 6852,
      "стивен": 6853,
      "чае": 6854,
      "чают": 6855,
      "фона": 6856,
      "гай": 6857,
      "гах": 6858,
      "гается": 6859,
      "ганом": 6860,
      "гавай": 6861,
      "гашек": 6862,
      "гавк": 6863,
      "гауби": 6864,
      "льные": 6865,
      "льтаты": 6866,
      "привил": 6867,
      "привели": 6868,
      "причаст": 6869,
      "приступ": 6870,
      "присоедин": 6871,
      "приказывает": 6872,
      "приехали": 6873,
      "комсомо": 6874,
      "мемах": 6875,
      "сток": 6876,
      "стон": 6877,
      "стовать": 6878,
      "сточной": 6879,
      "ческими": 6880,
      "прай": 6881,
      "суди": 6882,
      "сумас": 6883,
      "сурд": 6884,
      "сульта": 6885,
      "дефи": 6886,
      "альбин": 6887,
      "альбина": 6888,
      "век": 6889,
      "вещ": 6890,
      "века": 6891,
      "зиса": 6892,
      "зийской": 6893,
      "разру": 6894,
      "разреш": 6895,
      "размере": 6896,
      "разбога": 6897,
      "подле": 6898,
      "подала": 6899,
      "подня": 6900,
      "подход": 6901,
      "подключ": 6902,
      "подполков": 6903,
      "полгода": 6904,
      "полета": 6905,
      "полном": 6906,
      "полез": 6907,
      "полых": 6908,
      "гической": 6909,
      "гидро": 6910,
      "гидра": 6911,
      "верху": 6912,
      "мукра": 6913,
      "мужа": 6914,
      "мундс": 6915,
      "екто": 6916,
      "хом": 6917,
      "хождения": 6918,
      "холд": 6919,
      "хорвати": 6920,
      "пуга": 6921,
      "пуэр": 6922,
      "люда": 6923,
      "конститу": 6924,
      "консульта": 6925,
      "предела": 6926,
      "предъя": 6927,
      "графа": 6928,
      "ряда": 6929,
      "ительные": 6930,
      "ительным": 6931,
      "ительная": 6932,
      "бах": 6933,
      "бара": 6934,
      "базу": 6935,
      "базы": 6936,
      "базе": 6937,
      "бапти": 6938,
      "базирования": 6939,
      "бабочка": 6940,
      "миннис": 6941,
      "новь": 6942,
      "беда": 6943,
      "бесс": 6944,
      "безна": 6945,
      "сид": 6946,
      "вуша": 6947,
      "зона": 6948,
      "леров": 6949,
      "лега": 6950,
      "лером": 6951,
      "чиков": 6952,
      "чиками": 6953,
      "чистки": 6954,
      "евг": 6955,
      "евскую": 6956,
      "евший": 6957,
      "ковь": 6958,
      "трав": 6959,
      "траты": 6960,
      "тратова": 6961,
      "травм": 6962,
      "кером": 6963,
      "вился": 6964,
      "перво": 6965,
      "перии": 6966,
      "персона": 6967,
      "стью": 6968,
      "этомсообщает": 6969,
      "сеч": 6970,
      "сепара": 6971,
      "сессии": 6972,
      "жепа": 6973,
      "жеский": 6974,
      "сери": 6975,
      "серти": 6976,
      "серии": 6977,
      "серде": 6978,
      "серве": 6979,
      "сербы": 6980,
      "сербом": 6981,
      "сербами": 6982,
      "совете": 6983,
      "живет": 6984,
      "общей": 6985,
      "общаться": 6986,
      "единую": 6987,
      "единицами": 6988,
      "долг": 6989,
      "ведут": 6990,
      "войну": 6991,
      "войск": 6992,
      "гуля": 6993,
      "тельных": 6994,
      "тельниц": 6995,
      "казанных": 6996,
      "ствах": 6997,
      "дерской": 6998,
      "харьков": 6999,
      "инаугу": 7000,
      "буша": 7001,
      "будора": 7002,
      "бумаг": 7003,
      "переговор": 7004,
      "перебой": 7005,
      "кана": 7006,
      "канал": 7007,
      "канцел": 7008,
      "учить": 7009,
      "учится": 7010,
      "женился": 7011,
      "женностью": 7012,
      "женат": 7013,
      "ющему": 7014,
      "етами": 7015,
      "валер": 7016,
      "жается": 7017,
      "был": 7018,
      "бывал": 7019,
      "родителей": 7020,
      "итам": 7021,
      "итая": 7022,
      "итацию": 7023,
      "слуги": 7024,
      "ильи": 7025,
      "одному": 7026,
      "словно": 7027,
      "еран": 7028,
      "фици": 7029,
      "стефан": 7030,
      "студен": 7031,
      "студии": 7032,
      "сообщения": 7033,
      "сообщение": 7034,
      "влад": 7035,
      "власть": 7036,
      "ближе": 7037,
      "самоход": 7038,
      "самозапрет": 7039,
      "утром": 7040,
      "илагать": 7041,
      "начнет": 7042,
      "началась": 7043,
      "октябрь": 7044,
      "енье": 7045,
      "милан": 7046,
      "миллера": 7047,
      "форму": 7048,
      "формы": 7049,
      "правных": 7050,
      "правсоглашения": 7051,
      "скажите": 7052,
      "металлур": 7053,
      "президенту": 7054,
      "бирже": 7055,
      "шав": 7056,
      "шаг": 7057,
      "шат": 7058,
      "шаги": 7059,
      "шавер": 7060,
      "шают": 7061,
      "шатель": 7062,
      "шагом": 7063,
      "ителя": 7064,
      "ителям": 7065,
      "редкость": 7066,
      "реджепа": 7067,
      "церов": 7068,
      "акций": 7069,
      "импорт": 7070,
      "импорто": 7071,
      "империи": 7072,
      "арм": 7073,
      "арсен": 7074,
      "аркта": 7075,
      "архив": 7076,
      "трей": 7077,
      "трек": 7078,
      "работке": 7079,
      "работников": 7080,
      "черке": 7081,
      "спг": 7082,
      "списках": 7083,
      "сится": 7084,
      "цам": 7085,
      "рессом": 7086,
      "ресенье": 7087,
      "газете": 7088,
      "яхте": 7089,
      "трудо": 7090,
      "труда": 7091,
      "емыми": 7092,
      "паспорт": 7093,
      "украинцы": 7094,
      "ственно": 7095,
      "ственной": 7096,
      "ственном": 7097,
      "согласились": 7098,
      "турцией": 7099,
      "экспорта": 7100,
      "экспропри": 7101,
      "собчак": 7102,
      "бандеров": 7103,
      "вторую": 7104,
      "октябрястало": 7105,
      "велин": 7106,
      "сербской": 7107,
      "сербские": 7108,
      "сербская": 7109,
      "сербскую": 7110,
      "сербское": 7111,
      "гентом": 7112,
      "генска": 7113,
      "генети": 7114,
      "генштаба": 7115,
      "оруэл": 7116,
      "область": 7117,
      "областях": 7118,
      "александром": 7119,
      "словами": 7120,
      "данно": 7121,
      "деть": 7122,
      "детской": 7123,
      "детстве": 7124,
      "рассад": 7125,
      "ценности": 7126,
      "прин": 7127,
      "прине": 7128,
      "прилагать": 7129,
      "политик": 7130,
      "политиков": 7131,
      "политикой": 7132,
      "политической": 7133,
      "политических": 7134,
      "ранспор": 7135,
      "ранспорт": 7136,
      "сторона": 7137,
      "стороной": 7138,
      "сторонами": 7139,
      "сторонам": 7140,
      "вины": 7141,
      "щие": 7142,
      "министрирования": 7143,
      "пресса": 7144,
      "служба": 7145,
      "ветка": 7146,
      "можем": 7147,
      "финских": 7148,
      "финскими": 7149,
      "читать": 7150,
      "вране": 7151,
      "военным": 7152,
      "знак": 7153,
      "менту": 7154,
      "операция": 7155,
      "станций": 7156,
      "техника": 7157,
      "министрами": 7158,
      "пиона": 7159,
      "пирот": 7160,
      "петкович": 7161,
      "петером": 7162,
      "миллер": 7163,
      "безопасной": 7164,
      "брилли": 7165,
      "другим": 7166,
      "отметить": 7167,
      "отметке": 7168,
      "расста": 7169,
      "распредел": 7170,
      "рабочих": 7171,
      "сотрудники": 7172,
      "возможное": 7173,
      "портале": 7174,
      "портман": 7175,
      "госуниверсит": 7176,
      "госуслуги": 7177,
      "известные": 7178,
      "известного": 7179,
      "известная": 7180,
      "иниции": 7181,
      "народного": 7182,
      "лента": 7183,
      "мандатом": 7184,
      "регуля": 7185,
      "администрирования": 7186,
      "госсовета": 7187,
      "волна": 7188,
      "правовой": 7189,
      "правовых": 7190,
      "православ": 7191,
      "основным": 7192,
      "основное": 7193,
      "смотреть": 7194,
      "регистра": 7195,
      "регионе": 7196,
      "межпосел": 7197,
      "межправсоглашения": 7198,
      "гражданином": 7199,
      "встречается": 7200,
      "европе": 7201,
      "европу": 7202,
      "действие": 7203,
      "действиям": 7204,
      "автономии": 7205,
      "грузо": 7206,
      "голос": 7207,
      "голову": 7208,
      "голосовать": 7209,
      "назвали": 7210,
      "киева": 7211,
      "киеву": 7212,
      "стоянович": 7213,
      "америке": 7214,
      "вшую": 7215,
      "точку": 7216,
      "информация": 7217,
      "информационных": 7218,
      "рынках": 7219,
      "приштина": 7220,
      "россию": 7221,
      "объясня": 7222,
      "объявление": 7223,
      "новака": 7224,
      "циальных": 7225,
      "сыгра": 7226,
      "камск": 7227,
      "рукопожа": 7228,
      "брат": 7229,
      "брака": 7230,
      "брали": 7231,
      "браков": 7232,
      "считая": 7233,
      "хотят": 7234,
      "центро": 7235,
      "поддержу": 7236,
      "шовных": 7237,
      "выступив": 7238,
      "республика": 7239,
      "блей": 7240,
      "тюрка": 7241,
      "честно": 7242,
      "решением": 7243,
      "добавив": 7244,
      "американской": 7245,
      "американские": 7246,
      "ins": 7247,
      "ответил": 7248,
      "открыла": 7249,
      "открытой": 7250,
      "курса": 7251,
      "курской": 7252,
      "дирекции": 7253,
      "директором": 7254,
      "пользователь": 7255,
      "пользоваться": 7256,
      "est": 7257,
      "коррект": 7258,
      "главного": 7259,
      "будущей": 7260,
      "будущего": 7261,
      "великим": 7262,
      "величай": 7263,
      "взаим": 7264,
      "зерк": 7265,
      "чук": 7266,
      "рованный": 7267,
      "судна": 7268,
      "двум": 7269,
      "двусторон": 7270,
      "двумя": 7271,
      "ждает": 7272,
      "признал": 7273,
      "участков": 7274,
      "производственных": 7275,
      "руководством": 7276,
      "организатор": 7277,
      "организацией": 7278,
      "средства": 7279,
      "среднего": 7280,
      "создан": 7281,
      "созданию": 7282,
      "газового": 7283,
      "ализация": 7284,
      "регулиру": 7285,
      "регулирует": 7286,
      "международном": 7287,
      "енок": 7288,
      "карл": 7289,
      "карто": 7290,
      "карта": 7291,
      "рактар": 7292,
      "готовить": 7293,
      "пытался": 7294,
      "церковь": 7295,
      "вооружений": 7296,
      "вооружать": 7297,
      "вооружают": 7298,
      "командов": 7299,
      "подписанный": 7300,
      "сняли": 7301,
      "спецназа": 7302,
      "спецпредом": 7303,
      "гражданства": 7304,
      "гражданство": 7305,
      "добавила": 7306,
      "взгля": 7307,
      "взрывов": 7308,
      "истори": 7309,
      "элит": 7310,
      "колодцев": 7311,
      "мойсило": 7312,
      "противник": 7313,
      "администрацииолег": 7314,
      "регулирование": 7315,
      "sta": 7316,
      "star": 7317,
      "заняти": 7318,
      "офиса": 7319,
      "офицеров": 7320,
      "факуль": 7321,
      "товари": 7322,
      "проводов": 7323,
      "лично": 7324,
      "личный": 7325,
      "maxi": 7326,
      "мление": 7327,
      "юмору": 7328,
      "находятся": 7329,
      "национальности": 7330,
      "обвинил": 7331,
      "обвинительных": 7332,
      "людьми": 7333,
      "которому": 7334,
      "планирует": 7335,
      "планировалась": 7336,
      "белорусс": 7337,
      "сбалан": 7338,
      "удара": 7339,
      "эрмита": 7340,
      "проводить": 7341,
      "проводили": 7342,
      "проводят": 7343,
      "выборов": 7344,
      "байрактар": 7345,
      "делового": 7346,
      "четвертый": 7347,
      "обеспечены": 7348,
      "авиал": 7349,
      "июле": 7350,
      "достигла": 7351,
      "достигает": 7352,
      "разработали": 7353,
      "активных": 7354,
      "прессслужбы": 7355,
      "финансового": 7356,
      "внед": 7357,
      "внеза": 7358,
      "жесткую": 7359,
      "нормаль": 7360,
      "нормативно": 7361,
      "последу": 7362,
      "последнего": 7363,
      "последние": 7364,
      "важнее": 7365,
      "важнейших": 7366,
      "молодости": 7367,
      "молодой": 7368,
      "свобод": 7369,
      "произошед": 7370,
      "произойдет": 7371,
      "тюрьму": 7372,
      "тюрьмах": 7373,
      "вань": 7374,
      "слабо": 7375,
      "обяз": 7376,
      "территория": 7377,
      "иностранные": 7378,
      "федеральные": 7379,
      "экономический": 7380,
      "экономическим": 7381,
      "блокчей": 7382,
      "уровню": 7383,
      "шутку": 7384,
      "шутили": 7385,
      "реализацией": 7386,
      "постановления": 7387,
      "катари": 7388,
      "пространство": 7389,
      "предыдущей": 7390,
      "платформа": 7391,
      "огнестре": 7392,
      "охват": 7393,
      "рейс": 7394,
      "называют": 7395,
      "замгенска": 7396,
      "законной": 7397,
      "законного": 7398,
      "старше": 7399,
      "старшего": 7400,
      "палестинской": 7401,
      "значит": 7402,
      "значительно": 7403,
      "очереди": 7404,
      "антиутоп": 7405,
      "нарушение": 7406,
      "причинах": 7407,
      "спирт": 7408,
      "спикером": 7409,
      "белграда": 7410,
      "белградом": 7411,
      "covid": 7412,
      "именной": 7413,
      "ограничения": 7414,
      "освобождается": 7415,
      "шлось": 7416,
      "направлений": 7417,
      "заверили": 7418,
      "завершается": 7419,
      "видит": 7420,
      "представлял": 7421,
      "планы": 7422,
      "джавелин": 7423,
      "линей": 7424,
      "лингов": 7425,
      "оставил": 7426,
      "оставив": 7427,
      "хуже": 7428,
      "художествен": 7429,
      "райт": 7430,
      "реабил": 7431,
      "разведкой": 7432,
      "севера": 7433,
      "бывшая": 7434,
      "сторонников": 7435,
      "сторонники": 7436,
      "позволить": 7437,
      "авиаудары": 7438,
      "иваль": 7439,
      "лантратова": 7440,
      "темпера": 7441,
      "поставка": 7442,
      "инфаркта": 7443,
      "исполнительного": 7444,
      "исполнительный": 7445,
      "предложили": 7446,
      "предложила": 7447,
      "террор": 7448,
      "приштину": 7449,
      "юридический": 7450,
      "юридическом": 7451,
      "материал": 7452,
      "защиту": 7453,
      "продолжались": 7454,
      "лицемерии": 7455,
      "мурманский": 7456,
      "ледователь": 7457,
      "ледоколь": 7458,
      "сервисы": 7459,
      "совместном": 7460,
      "совместными": 7461,
      "фикацию": 7462,
      "связана": 7463,
      "китайской": 7464,
      "подчеркнула": 7465,
      "подчеркнуть": 7466,
      "ататюрка": 7467,
      "желтая": 7468,
      "надзор": 7469,
      "каждого": 7470,
      "доктором": 7471,
      "моделью": 7472,
      "модельную": 7473,
      "выполнял": 7474,
      "использования": 7475,
      "трансляции": 7476,
      "британской": 7477,
      "ener": 7478,
      "enter": 7479,
      "уточнены": 7480,
      "результаты": 7481,
      "почтенные": 7482,
      "завиру": 7483,
      "западным": 7484,
      "дороже": 7485,
      "документов": 7486,
      "просили": 7487,
      "передает": 7488,
      "публиковал": 7489,
      "публикования": 7490,
      "обязательную": 7491,
      "противоправных": 7492,
      "противозаконной": 7493,
      "подробности": 7494,
      "балкан": 7495,
      "хесселинк": 7496,
      "режим": 7497,
      "режиме": 7498,
      "поколений": 7499,
      "восточной": 7500,
      "восточного": 7501,
      "предупре": 7502,
      "самим": 7503,
      "самих": 7504,
      "пунктам": 7505,
      "периоде": 7506,
      "критику": 7507,
      "турецкие": 7508,
      "турецким": 7509,
      "турецкому": 7510,
      "сенатор": 7511,
      "сенатора": 7512,
      "сенатором": 7513,
      "построили": 7514,
      "построим": 7515,
      "построены": 7516,
      "построено": 7517,
      "восста": 7518,
      "восхи": 7519,
      "воспрепят": 7520,
      "воссоздании": 7521,
      "воспользоваться": 7522,
      "событие": 7523,
      "событием": 7524,
      "месячное": 7525,
      "подготовке": 7526,
      "кандидата": 7527,
      "ключевых": 7528,
      "объекта": 7529,
      "парламенте": 7530,
      "способны": 7531,
      "способность": 7532,
      "способствовать": 7533,
      "генеральным": 7534,
      "смотрят": 7535,
      "аппарат": 7536,
      "ехала": 7537,
      "ехники": 7538,
      "играл": 7539,
      "играет": 7540,
      "снижению": 7541,
      "попытке": 7542,
      "попытках": 7543,
      "албанскими": 7544,
      "советом": 7545,
      "создано": 7546,
      "создавать": 7547,
      "создадут": 7548,
      "дополнительных": 7549,
      "мощность": 7550,
      "происходит": 7551,
      "происхождения": 7552,
      "думают": 7553,
      "полуостро": 7554,
      "безотзы": 7555,
      "романтических": 7556,
      "государственный": 7557,
      "вооруженные": 7558,
      "вооруженное": 7559,
      "вооруженными": 7560,
      "очередной": 7561,
      "результат": 7562,
      "бизнес": 7563,
      "azine": 7564,
      "кризиса": 7565,
      "многокварти": 7566,
      "коротаева": 7567,
      "готовуша": 7568,
      "городах": 7569,
      "состоявшей": 7570,
      "обычных": 7571,
      "боевыми": 7572,
      "десятки": 7573,
      "десятков": 7574,
      "симкарт": 7575,
      "скрываем": 7576,
      "однополых": 7577,
      "одноименной": 7578,
      "заявляли": 7579,
      "соблюдением": 7580,
      "соблюдался": 7581,
      "петербурга": 7582,
      "позволят": 7583,
      "появился": 7584,
      "женщинам": 7585,
      "артистка": 7586,
      "артисткой": 7587,
      "shi": 7588,
      "палату": 7589,
      "пожало": 7590,
      "покушение": 7591,
      "соренсеном": 7592,
      "задержан": 7593,
      "миграции": 7594,
      "необоснованного": 7595,
      "дебют": 7596,
      "поддерживаем": 7597,
      "подтверждения": 7598,
      "конгрессом": 7599,
      "минации": 7600,
      "крупной": 7601,
      "крупней": 7602,
      "энергоблока": 7603,
      "юмориста": 7604,
      "юмористи": 7605,
      "функции": 7606,
      "функциональ": 7607,
      "функциями": 7608,
      "многих": 7609,
      "соцсеть": 7610,
      "беспилотников": 7611,
      "беспилотниками": 7612,
      "via": 7613,
      "осуществлению": 7614,
      "силам": 7615,
      "управлять": 7616,
      "фестиваль": 7617,
      "носпаса": 7618,
      "варшавер": 7619,
      "кинопремии": 7620,
      "кинопроизводстве": 7621,
      "лишится": 7622,
      "песне": 7623,
      "доллар": 7624,
      "словенией": 7625,
      "рассказали": 7626,
      "следует": 7627,
      "финляндия": 7628,
      "косовоалбанского": 7629,
      "косовоалбанских": 7630,
      "косовоалбанский": 7631,
      "косовоалбанские": 7632,
      "косовоалбанским": 7633,
      "возглавлял": 7634,
      "финансовой": 7635,
      "азербайджанский": 7636,
      "отечественных": 7637,
      "искусственного": 7638,
      "кинематографи": 7639,
      "экспрессгазета": 7640,
      "экспрессгазете": 7641,
      "экспрессгазеты": 7642,
      "бермудский": 7643,
      "самопровозглашенная": 7644,
      "абсурд": 7645,
      "кален": 7646,
      "книги": 7647,
      "книгу": 7648,
      "озкану": 7649,
      "оказывают": 7650,
      "пенсиль": 7651,
      "угроз": 7652,
      "целое": 7653,
      "инвестиций": 7654,
      "настоящей": 7655,
      "защитой": 7656,
      "певиц": 7657,
      "бесперебой": 7658,
      "бесшовных": 7659,
      "ступления": 7660,
      "европейских": 7661,
      "миллиардов": 7662,
      "голосования": 7663,
      "голосование": 7664,
      "объяснить": 7665,
      "великобритания": 7666,
      "великобританией": 7667,
      "признался": 7668,
      "признанной": 7669,
      "запрещена": 7670,
      "запрещенной": 7671,
      "смешнее": 7672,
      "координировать": 7673,
      "транспорт": 7674,
      "петербургском": 7675,
      "губернатором": 7676,
      "ceo": 7677,
      "pay": 7678,
      "вшегося": 7679,
      "исследователь": 7680,
      "фактически": 7681,
      "воспр": 7682,
      "воспал": 7683,
      "воспиты": 7684,
      "наблюдения": 7685,
      "наблюда": 7686,
      "зафиксировано": 7687,
      "недоста": 7688,
      "недосто": 7689,
      "евразийской": 7690,
      "согласованию": 7691,
      "согласованием": 7692,
      "политическим": 7693,
      "политическая": 7694,
      "писателя": 7695,
      "логистики": 7696,
      "семейном": 7697,
      "выступления": 7698,
      "усилиям": 7699,
      "усилиями": 7700,
      "подобных": 7701,
      "magazine": 7702,
      "германией": 7703,
      "координации": 7704,
      "координаты": 7705,
      "координатор": 7706,
      "инфраструктура": 7707,
      "прокурором": 7708,
      "кредитных": 7709,
      "кредитной": 7710,
      "популярность": 7711,
      "исчезнов": 7712,
      "треугольник": 7713,
      "атомстрой": 7714,
      "вшихся": 7715,
      "драма": 7716,
      "дратных": 7717,
      "мальный": 7718,
      "сфрю": 7719,
      "футболь": 7720,
      "школь": 7721,
      "косовской": 7722,
      "косовские": 7723,
      "рекомендовал": 7724,
      "напомнить": 7725,
      "миронов": 7726,
      "русского": 7727,
      "печати": 7728,
      "супруги": 7729,
      "хорошей": 7730,
      "концерт": 7731,
      "концерте": 7732,
      "концертов": 7733,
      "санктпетербурга": 7734,
      "ближайший": 7735,
      "церемонию": 7736,
      "торговле": 7737,
      "компаниями": 7738,
      "платежей": 7739,
      "командующему": 7740,
      "эрдоган": 7741,
      "эрдоганом": 7742,
      "антифродсистема": 7743,
      "разведывательные": 7744,
      "разведывательными": 7745,
      "конгрессе": 7746,
      "конгрессу": 7747,
      "аналитик": 7748,
      "онлайнрекла": 7749,
      "онлайнбрифинга": 7750,
      "вкладов": 7751,
      "динара": 7752,
      "клиентами": 7753,
      "сцена": 7754,
      "резиденцию": 7755,
      "поставляла": 7756,
      "поставляемыми": 7757,
      "понимает": 7758,
      "понимают": 7759,
      "нападений": 7760,
      "нападениях": 7761,
      "собирается": 7762,
      "заметили": 7763,
      "продажи": 7764,
      "продадите": 7765,
      "проверка": 7766,
      "прекратили": 7767,
      "майору": 7768,
      "майами": 7769,
      "богатой": 7770,
      "богатая": 7771,
      "призывом": 7772,
      "призываю": 7773,
      "призывающую": 7774,
      "депутатов": 7775,
      "странах": 7776,
      "владельца": 7777,
      "техническую": 7778,
      "взятые": 7779,
      "источников": 7780,
      "обвиняли": 7781,
      "освободит": 7782,
      "освободительной": 7783,
      "партнерской": 7784,
      "центральная": 7785,
      "аммиакопровод": 7786,
      "подтвердила": 7787,
      "законодателей": 7788,
      "2025": 7789,
      "sian": 7790,
      "всему": 7791,
      "идеей": 7792,
      "мвт": 7793,
      "мвф": 7794,
      "осуждается": 7795,
      "сделано": 7796,
      "сделать": 7797,
      "ударными": 7798,
      "фракии": 7799,
      "кораблей": 7800,
      "ресурсов": 7801,
      "повышения": 7802,
      "повышение": 7803,
      "повышению": 7804,
      "соединённые": 7805,
      "законов": 7806,
      "запуск": 7807,
      "анимационных": 7808,
      "скорости": 7809,
      "применения": 7810,
      "применении": 7811,
      "приобрел": 7812,
      "приобретет": 7813,
      "исполнении": 7814,
      "общественных": 7815,
      "общественной": 7816,
      "учреждения": 7817,
      "учреждение": 7818,
      "ходящего": 7819,
      "казахстан": 7820,
      "руководителем": 7821,
      "огромные": 7822,
      "скандалов": 7823,
      "осуществляться": 7824,
      "превратился": 7825,
      "зависимости": 7826,
      "доказательством": 7827,
      "комплекс": 7828,
      "комплексов": 7829,
      "дэниел": 7830,
      "ехавший": 7831,
      "лдпр": 7832,
      "младше": 7833,
      "налого": 7834,
      "офер": 7835,
      "психо": 7836,
      "спамзвон": 7837,
      "услуг": 7838,
      "услуги": 7839,
      "успеш": 7840,
      "росимущест": 7841,
      "росимущества": 7842,
      "росимущество": 7843,
      "похожи": 7844,
      "анкара": 7845,
      "инграде": 7846,
      "инструмент": 7847,
      "научно": 7848,
      "наилучших": 7849,
      "наилучшим": 7850,
      "наилучшего": 7851,
      "сооружение": 7852,
      "тайипа": 7853,
      "морской": 7854,
      "вызвало": 7855,
      "выражения": 7856,
      "столкнов": 7857,
      "празднов": 7858,
      "сумму": 7859,
      "подразделений": 7860,
      "конкретики": 7861,
      "туристов": 7862,
      "возникнет": 7863,
      "перенять": 7864,
      "характ": 7865,
      "родственники": 7866,
      "стубб": 7867,
      "стубба": 7868,
      "стуббом": 7869,
      "светской": 7870,
      "газманова": 7871,
      "массовой": 7872,
      "дронамикамикадзе": 7873,
      "призраки": 7874,
      "генералмайору": 7875,
      "внешней": 7876,
      "завершению": 7877,
      "благодарность": 7878,
      "терроризме": 7879,
      "терроризмом": 7880,
      "террористические": 7881,
      "пожарных": 7882,
      "пожарноспаса": 7883,
      "санктпетербурге": 7884,
      "инициативы": 7885,
      "инициативе": 7886,
      "инициативами": 7887,
      "сравнить": 7888,
      "гуманитарную": 7889,
      "интеллекта": 7890,
      "интеллекту": 7891,
      "gerald": 7892,
      "взорвались": 7893,
      "знания": 7894,
      "ядерного": 7895,
      "язычными": 7896,
      "решают": 7897,
      "решающее": 7898,
      "попавшие": 7899,
      "поверить": 7900,
      "пострада": 7901,
      "положении": 7902,
      "покинуть": 7903,
      "покинула": 7904,
      "томагавк": 7905,
      "прежде": 7906,
      "высших": 7907,
      "курирует": 7908,
      "прибыл": 7909,
      "комнате": 7910,
      "комнаты": 7911,
      "подписать": 7912,
      "континенте": 7913,
      "контингентом": 7914,
      "предприниматель": 7915,
      "представлено": 7916,
      "беспочвен": 7917,
      "беседе": 7918,
      "активов": 7919,
      "арене": 7920,
      "требует": 7921,
      "требуется": 7922,
      "рассматривается": 7923,
      "январе": 7924,
      "встретился": 7925,
      "представительстве": 7926,
      "metov": 7927,
      "ожидается": 7928,
      "финансирование": 7929,
      "грозит": 7930,
      "грозный": 7931,
      "культурного": 7932,
      "культурная": 7933,
      "криптовалю": 7934,
      "защищал": 7935,
      "защищенных": 7936,
      "сохранять": 7937,
      "мечтает": 7938,
      "статистику": 7939,
      "жертв": 7940,
      "жертвами": 7941,
      "максимально": 7942,
      "дипломатических": 7943,
      "дипломатическую": 7944,
      "оценивается": 7945,
      "коммуникаций": 7946,
      "коммуникациям": 7947,
      "бомбардировкам": 7948,
      "david": 7949,
      "polic": 7950,
      "вводятся": 7951,
      "жилищного": 7952,
      "желает": 7953,
      "имущества": 7954,
      "имущество": 7955,
      "лобби": 7956,
      "пандемии": 7957,
      "письма": 7958,
      "указания": 7959,
      "установки": 7960,
      "фанта": 7961,
      "хватит": 7962,
      "росатома": 7963,
      "ковичем": 7964,
      "потерял": 7965,
      "награды": 7966,
      "содержащий": 7967,
      "таблоид": 7968,
      "латви": 7969,
      "прошлом": 7970,
      "неожиданно": 7971,
      "обломков": 7972,
      "обломками": 7973,
      "отставку": 7974,
      "отставке": 7975,
      "путеводитель": 7976,
      "любимы": 7977,
      "любимовой": 7978,
      "контрразведки": 7979,
      "золото": 7980,
      "золотая": 7981,
      "широкого": 7982,
      "телеканал": 7983,
      "зумерский": 7984,
      "черногории": 7985,
      "оснащены": 7986,
      "объединяют": 7987,
      "трубопровод": 7988,
      "трубопроводов": 7989,
      "компенсаций": 7990,
      "компенсациям": 7991,
      "соблюдать": 7992,
      "коленей": 7993,
      "приложение": 7994,
      "берлит": 7995,
      "большинством": 7996,
      "селаковичем": 7997,
      "распространил": 7998,
      "москвуи": 7999,
      "встречаются": 8000,
      "информационная": 8001,
      "системе": 8002,
      "тяжелой": 8003,
      "блогерша": 8004,
      "отмечали": 8005,
      "сегодняшнего": 8006,
      "устройства": 8007,
      "союзниками": 8008,
      "комментариев": 8009,
      "десятилетий": 8010,
      "десятилетнего": 8011,
      "обсуждает": 8012,
      "выпущены": 8013,
      "специалистов": 8014,
      "специализиру": 8015,
      "муниципальные": 8016,
      "муниципальных": 8017,
      "комментируя": 8018,
      "sec": 8019,
      "кемаля": 8020,
      "рэпера": 8021,
      "установление": 8022,
      "удив": 8023,
      "стерлингов": 8024,
      "реанимации": 8025,
      "покупку": 8026,
      "посмотре": 8027,
      "потенци": 8028,
      "потенциальных": 8029,
      "поездки": 8030,
      "соликамск": 8031,
      "кирил": 8032,
      "закупкой": 8033,
      "допуск": 8034,
      "дакоты": 8035,
      "професси": 8036,
      "обоснования": 8037,
      "отмене": 8038,
      "отменить": 8039,
      "выдержали": 8040,
      "выдержала": 8041,
      "ссылкой": 8042,
      "боксолл": 8043,
      "боксолла": 8044,
      "терактов": 8045,
      "получают": 8046,
      "вертолетами": 8047,
      "хокке": 8048,
      "хоккей": 8049,
      "сербия": 8050,
      "сербией": 8051,
      "сообществе": 8052,
      "начинали": 8053,
      "действующий": 8054,
      "относиться": 8055,
      "относительно": 8056,
      "ответственная": 8057,
      "молодым": 8058,
      "молодых": 8059,
      "предположительно": 8060,
      "поставленный": 8061,
      "бронетранспор": 8062,
      "бронетехники": 8063,
      "бакалавр": 8064,
      "бакалавриат": 8065,
      "посредническая": 8066,
      "посредническую": 8067,
      "всемирной": 8068,
      "пожертвовал": 8069,
      "пенсию": 8070,
      "пенсион": 8071,
      "этнически": 8072,
      "этнические": 8073,
      "спрашивал": 8074,
      "челябинской": 8075,
      "челябинск": 8076,
      "площадке": 8077,
      "возмутилась": 8078,
      "арабского": 8079,
      "арабских": 8080,
      "ежегодного": 8081,
      "нынешнего": 8082,
      "категорий": 8083,
      "bentle": 8084,
      "first": 8085,
      "skydag": 8086,
      "абортов": 8087,
      "смсрасс": 8088,
      "ущерба": 8089,
      "учебные": 8090,
      "репликами": 8091,
      "собеседник": 8092,
      "соратник": 8093,
      "какоголибо": 8094,
      "доставке": 8095,
      "отреагировал": 8096,
      "выгодной": 8097,
      "печенько": 8098,
      "альбома": 8099,
      "подруга": 8100,
      "диалогу": 8101,
      "градусов": 8102,
      "туроператоров": 8103,
      "баяны": 8104,
      "перспективных": 8105,
      "краснодар": 8106,
      "близость": 8107,
      "российскосербское": 8108,
      "другую": 8109,
      "артроз": 8110,
      "газотранспорт": 8111,
      "волныпризраки": 8112,
      "палестиноизраильского": 8113,
      "элементами": 8114,
      "охраны": 8115,
      "освобождению": 8116,
      "бронировать": 8117,
      "защитить": 8118,
      "аэропорт": 8119,
      "спортивного": 8120,
      "происходило": 8121,
      "происшествия": 8122,
      "формирований": 8123,
      "глубокого": 8124,
      "свидетельствуют": 8125,
      "покупаем": 8126,
      "контейнеров": 8127,
      "истинные": 8128,
      "калифорнии": 8129,
      "инградского": 8130,
      "забастовки": 8131,
      "бюрократии": 8132,
      "съемках": 8133,
      "беспокоиться": 8134,
      "магистральный": 8135,
      "бомбардировщиков": 8136,
      "демократической": 8137,
      "знаменитый": 8138,
      "ошибки": 8139,
      "поблагодарилтурцию": 8140,
      "индустрий": 8141,
      "религиозные": 8142,
      "дальнобойных": 8143,
      "посольствах": 8144,
      "искренние": 8145,
      "консерватором": 8146,
      "f15": 8147,
      "puma": 8148,
      "rtf15": 8149,
      "адекват": 8150,
      "вручения": 8151,
      "истечении": 8152,
      "малые": 8153,
      "ощу": 8154,
      "ольгой": 8155,
      "свежем": 8156,
      "спроектированы": 8157,
      "упрекал": 8158,
      "ужасает": 8159,
      "улуташу": 8160,
      "хрящ": 8161,
      "ястребом": 8162,
      "редак": 8163,
      "репутацию": 8164,
      "пообещал": 8165,
      "попытается": 8166,
      "воскресенье": 8167,
      "инспекций": 8168,
      "васильева": 8169,
      "вакцина": 8170,
      "замеча": 8171,
      "зарабатывают": 8172,
      "лауреа": 8173,
      "прогноз": 8174,
      "обменялся": 8175,
      "отраслей": 8176,
      "отчуждение": 8177,
      "вынудило": 8178,
      "париже": 8179,
      "приятным": 8180,
      "приветствовал": 8181,
      "приоритет": 8182,
      "мессендже": 8183,
      "подверг": 8184,
      "диагности": 8185,
      "мустафы": 8186,
      "предпринята": 8187,
      "границах": 8188,
      "трагических": 8189,
      "возглавить": 8190,
      "перечислил": 8191,
      "финополис": 8192,
      "самозанятых": 8193,
      "друзья": 8194,
      "импичмента": 8195,
      "арматуры": 8196,
      "крылатые": 8197,
      "голосующих": 8198,
      "обострение": 8199,
      "кардио": 8200,
      "байдена": 8201,
      "обязанности": 8202,
      "подчеркивала": 8203,
      "поражающими": 8204,
      "районная": 8205,
      "эксперименты": 8206,
      "посредничество": 8207,
      "фондовый": 8208,
      "биографические": 8209,
      "абдулаев": 8210,
      "абсолютно": 8211,
      "полномочия": 8212,
      "осужденных": 8213,
      "принадлежит": 8214,
      "достигнутой": 8215,
      "дворца": 8216,
      "джизакском": 8217,
      "клумб": 8218,
      "половину": 8219,
      "прозвучало": 8220,
      "полноценную": 8221,
      "цветочных": 8222,
      "таможенной": 8223,
      "безуспешно": 8224,
      "телеканала": 8225,
      "высокопоставленных": 8226,
      "анонси": 8227,
      "окончательно": 8228,
      "превышает": 8229,
      "махачкале": 8230,
      "aerovi": 8231,
      "cantor": 8232,
      "created": 8233,
      "fk3": 8234,
      "fitzgerald": 8235,
      "m1117": 8236,
      "nlaw": 8237,
      "ronment": 8238,
      "russian": 8239,
      "shemetov": 8240,
      "tesla": 8241,
      "вмешатель": 8242,
      "жаловался": 8243,
      "збруева": 8244,
      "йоханссо": 8245,
      "квадратных": 8246,
      "определен": 8247,
      "оформление": 8248,
      "опубликова": 8249,
      "птрк": 8250,
      "смущает": 8251,
      "сбербанка": 8252,
      "спровоцировали": 8253,
      "уяз": 8254,
      "уитко": 8255,
      "уединя": 8256,
      "улыба": 8257,
      "упразднение": 8258,
      "штрпце": 8259,
      "ыгрывает": 8260,
      "эмбарго": 8261,
      "юговосточной": 8262,
      "юрфак": 8263,
      "южурал": 8264,
      "роскино": 8265,
      "новисад": 8266,
      "нобелевскую": 8267,
      "количества": 8268,
      "револю": 8269,
      "поразили": 8270,
      "попросить": 8271,
      "поэтапно": 8272,
      "антовая": 8273,
      "гостехе": 8274,
      "госкорпора": 8275,
      "торико": 8276,
      "инсайдерской": 8277,
      "национализация": 8278,
      "насильственное": 8279,
      "накоротке": 8280,
      "содружества": 8281,
      "камерой": 8282,
      "какойто": 8283,
      "какотмеч": 8284,
      "зачастую": 8285,
      "затяжному": 8286,
      "загрязн": 8287,
      "николой": 8288,
      "мотивированных": 8289,
      "минометами": 8290,
      "проделана": 8291,
      "проанализировать": 8292,
      "русофобии": 8293,
      "некомпетент": 8294,
      "нептун": 8295,
      "обстоятельства": 8296,
      "оттоманской": 8297,
      "лозунгов": 8298,
      "духовная": 8299,
      "песню": 8300,
      "гаубицами": 8301,
      "причастность": 8302,
      "комсомоль": 8303,
      "сумасшед": 8304,
      "дефиц": 8305,
      "разрешить": 8306,
      "подключение": 8307,
      "подполковник": 8308,
      "верхушка": 8309,
      "хорватией": 8310,
      "пуэрторико": 8311,
      "пределах": 8312,
      "предъявили": 8313,
      "безнаказанных": 8314,
      "сепаратистами": 8315,
      "харьковской": 8316,
      "инаугура": 8317,
      "канцелярии": 8318,
      "самоходными": 8319,
      "экспроприация": 8320,
      "бандеровцев": 8321,
      "оруэлла": 8322,
      "рассадником": 8323,
      "бриллиантовая": 8324,
      "православную": 8325,
      "рукопожатием": 8326,
      "корректность": 8327,
      "величайшем": 8328,
      "мойсилович": 8329,
      "факультет": 8330,
      "maxim": 8331,
      "эрмитажа": 8332,
      "нормативноправовых": 8333,
      "огнестрельные": 8334,
      "охватил": 8335,
      "антиутопии": 8336,
      "covid19": 8337,
      "художественных": 8338,
      "реабилитацию": 8339,
      "ледокольному": 8340,
      "воспрепятстовать": 8341,
      "кинематографистов": 8342,
      "бесперебойную": 8343,
      "атомстройэкспорт": 8344,
      "онлайнрекламу": 8345,
      "спамзвонков": 8346,
      "беспочвенны": 8347,
      "профессион": 8348,
      "бронетранспортеров": 8349,
      "bentley": 8350,
      "skydagger": 8351,
      "смсрассылок": 8352,
      "мессенджеров": 8353,
      "aerovironment": 8354,
      "07": 8355,
      "14": 8356,
      "16": 8357,
      "24": 8358,
      "30": 8359,
      "__": 8360,
      "ac": 8361,
      "as": 8362,
      "asi": 8363,
      "awa": 8364,
      "a16": 8365,
      "a__": 8366,
      "bi": 8367,
      "bu": 8368,
      "bra": 8369,
      "baz": 8370,
      "ble": 8371,
      "cd": 8372,
      "cn": 8373,
      "cus": 8374,
      "cft": 8375,
      "do": 8376,
      "dica": 8377,
      "dow": 8378,
      "dbi": 8379,
      "ec": 8380,
      "ek": 8381,
      "em": 8382,
      "efre": 8383,
      "fa": 8384,
      "fe": 8385,
      "ff": 8386,
      "fl": 8387,
      "fun": 8388,
      "g8": 8389,
      "gh": 8390,
      "gy": 8391,
      "gal": 8392,
      "gine": 8393,
      "ham": 8394,
      "iet": 8395,
      "igh": 8396,
      "jam": 8397,
      "kof": 8398,
      "lin": 8399,
      "mкарт": 8400,
      "miam": 8401,
      "nal": 8402,
      "nor": 8403,
      "nat": 8404,
      "nsa": 8405,
      "nage": 8406,
      "pt": 8407,
      "par": 8408,
      "qua": 8409,
      "rl": 8410,
      "rben": 8411,
      "rnal": 8412,
      "ss": 8413,
      "swe": 8414,
      "squa": 8415,
      "ts": 8416,
      "uk": 8417,
      "urnal": 8418,
      "val": 8419,
      "var": 8420,
      "ven": 8421,
      "wor": 8422,
      "xx": 8423,
      "xiv": 8424,
      "xus": 8425,
      "xxi": 8426,
      "yspa": 8427,
      "za": 8428,
      "аа": 8429,
      "ай": 8430,
      "ах": 8431,
      "ака": 8432,
      "астра": 8433,
      "атра": 8434,
      "америки": 8435,
      "аук": 8436,
      "амор": 8437,
      "айо": 8438,
      "асм": 8439,
      "астр": 8440,
      "бек": 8441,
      "бря": 8442,
      "бий": 8443,
      "бля": 8444,
      "бред": 8445,
      "бницу": 8446,
      "бкс": 8447,
      "бенок": 8448,
      "вит": 8449,
      "ври": 8450,
      "вста": 8451,
      "вной": 8452,
      "ввоз": 8453,
      "вным": 8454,
      "вана": 8455,
      "вред": 8456,
      "всп": 8457,
      "врф": 8458,
      "вца": 8459,
      "вях": 8460,
      "включ": 8461,
      "всел": 8462,
      "вставля": 8463,
      "втурции": 8464,
      "внима": 8465,
      "входа": 8466,
      "введение": 8467,
      "введения": 8468,
      "вшее": 8469,
      "ввело": 8470,
      "вэн": 8471,
      "вказах": 8472,
      "вниз": 8473,
      "внальчике": 8474,
      "вченко": 8475,
      "влова": 8476,
      "вновь": 8477,
      "вмосквуи": 8478,
      "вмахачкале": 8479,
      "гц": 8480,
      "гин": 8481,
      "гест": 8482,
      "гем": 8483,
      "гпа": 8484,
      "галь": 8485,
      "гнер": 8486,
      "глен": 8487,
      "галов": 8488,
      "гвар": 8489,
      "грс": 8490,
      "дк": 8491,
      "дил": 8492,
      "дка": 8493,
      "дне": 8494,
      "дить": 8495,
      "дну": 8496,
      "дется": 8497,
      "для": 8498,
      "дян": 8499,
      "длен": 8500,
      "дгер": 8501,
      "длин": 8502,
      "диску": 8503,
      "деду": 8504,
      "днр": 8505,
      "дкова": 8506,
      "ег": 8507,
      "ею": 8508,
      "еда": 8509,
      "еало": 8510,
      "евых": 8511,
      "жин": 8512,
      "жка": 8513,
      "жду": 8514,
      "жным": 8515,
      "жиль": 8516,
      "жением": 8517,
      "жье": 8518,
      "жог": 8519,
      "жья": 8520,
      "ждут": 8521,
      "жителями": 8522,
      "жительницы": 8523,
      "зл": 8524,
      "зре": 8525,
      "здо": 8526,
      "зей": 8527,
      "зма": 8528,
      "зить": 8529,
      "зали": 8530,
      "зек": 8531,
      "зву": 8532,
      "зками": 8533,
      "знали": 8534,
      "залы": 8535,
      "знил": 8536,
      "здоро": 8537,
      "знал": 8538,
      "залу": 8539,
      "ие": 8540,
      "ире": 8541,
      "иит": 8542,
      "ива": 8543,
      "иди": 8544,
      "иод": 8545,
      "иях": 8546,
      "иотпу": 8547,
      "игры": 8548,
      "иаста": 8549,
      "йне": 8550,
      "йцы": 8551,
      "йтона": 8552,
      "йнин": 8553,
      "кз": 8554,
      "ктов": 8555,
      "кини": 8556,
      "кям": 8557,
      "клик": 8558,
      "кнд": 8559,
      "квали": 8560,
      "калы": 8561,
      "кмузыкант": 8562,
      "кхл": 8563,
      "лн": 8564,
      "лер": 8565,
      "лит": 8566,
      "лли": 8567,
      "лить": 8568,
      "лжи": 8569,
      "ланти": 8570,
      "литу": 8571,
      "леду": 8572,
      "лерного": 8573,
      "лгб": 8574,
      "мп": 8575,
      "мю": 8576,
      "мани": 8577,
      "мем": 8578,
      "мфо": 8579,
      "мной": 8580,
      "малов": 8581,
      "мально": 8582,
      "нта": 8583,
      "нного": 8584,
      "нской": 8585,
      "нгу": 8586,
      "нсп": 8587,
      "оре": 8588,
      "оли": 8589,
      "ога": 8590,
      "оной": 8591,
      "опол": 8592,
      "опу": 8593,
      "ону": 8594,
      "осво": 8595,
      "очер": 8596,
      "опис": 8597,
      "остан": 8598,
      "оказал": 8599,
      "опоз": 8600,
      "оставля": 8601,
      "оказа": 8602,
      "окре": 8603,
      "оговари": 8604,
      "опыта": 8605,
      "оскор": 8606,
      "охоло": 8607,
      "остался": 8608,
      "оказалась": 8609,
      "олега": 8610,
      "пс": 8611,
      "пш": 8612,
      "пени": 8613,
      "пса": 8614,
      "пный": 8615,
      "пился": 8616,
      "псам": 8617,
      "пяти": 8618,
      "пела": 8619,
      "пкин": 8620,
      "пента": 8621,
      "псков": 8622,
      "птически": 8623,
      "пдс": 8624,
      "рно": 8625,
      "рин": 8626,
      "рлет": 8627,
      "рвали": 8628,
      "рсф": 8629,
      "ржут": 8630,
      "ритет": 8631,
      "сэ": 8632,
      "сю": 8633,
      "сра": 8634,
      "сду": 8635,
      "сные": 8636,
      "сить": 8637,
      "свер": 8638,
      "сение": 8639,
      "сий": 8640,
      "спер": 8641,
      "сжи": 8642,
      "свод": 8643,
      "сбы": 8644,
      "сников": 8645,
      "спар": 8646,
      "ссово": 8647,
      "свид": 8648,
      "сменя": 8649,
      "сформи": 8650,
      "сблиз": 8651,
      "счел": 8652,
      "сказывает": 8653,
      "сформиров": 8654,
      "т2": 8655,
      "тки": 8656,
      "тные": 8657,
      "тали": 8658,
      "тный": 8659,
      "тности": 8660,
      "трем": 8661,
      "твых": 8662,
      "тща": 8663,
      "тети": 8664,
      "ттехнологий": 8665,
      "тницей": 8666,
      "ует": 8667,
      "уни": 8668,
      "уско": 8669,
      "уте": 8670,
      "уме": 8671,
      "умер": 8672,
      "утов": 8673,
      "усе": 8674,
      "увен": 8675,
      "узна": 8676,
      "уются": 8677,
      "указа": 8678,
      "успо": 8679,
      "укла": 8680,
      "увести": 8681,
      "ужест": 8682,
      "уйти": 8683,
      "употреб": 8684,
      "ущей": 8685,
      "убед": 8686,
      "улад": 8687,
      "умере": 8688,
      "удоволь": 8689,
      "уполномо": 8690,
      "уклон": 8691,
      "убрать": 8692,
      "уехал": 8693,
      "узнать": 8694,
      "ужин": 8695,
      "фед": 8696,
      "фстра": 8697,
      "флан": 8698,
      "фук": 8699,
      "фрс": 8700,
      "флить": 8701,
      "хб": 8702,
      "хра": 8703,
      "хей": 8704,
      "хло": 8705,
      "хность": 8706,
      "хита": 8707,
      "хмед": 8708,
      "хальной": 8709,
      "хэт": 8710,
      "цком": 8711,
      "цкая": 8712,
      "цом": 8713,
      "чли": 8714,
      "чку": 8715,
      "чили": 8716,
      "чная": 8717,
      "чены": 8718,
      "ченных": 8719,
      "чками": 8720,
      "чался": 8721,
      "чему": 8722,
      "чрай": 8723,
      "чок": 8724,
      "шал": 8725,
      "шер": 8726,
      "шку": 8727,
      "шной": 8728,
      "ште": 8729,
      "шту": 8730,
      "шев": 8731,
      "шный": 8732,
      "шело": 8733,
      "шине": 8734,
      "шние": 8735,
      "шую": 8736,
      "шний": 8737,
      "шпанов": 8738,
      "щений": 8739,
      "щением": 8740,
      "щему": 8741,
      "щую": 8742,
      "ъандрей": 8743,
      "ыв": 8744,
      "ышка": 8745,
      "ьют": 8746,
      "ьим": 8747,
      "эль": 8748,
      "эте": 8749,
      "эмит": 8750,
      "эпи": 8751,
      "эрек": 8752,
      "эпит": 8753,
      "эвис": 8754,
      "эмигрантов": 8755,
      "эшело": 8756,
      "юли": 8757,
      "юсти": 8758,
      "ютов": 8759,
      "юар": 8760,
      "юстом": 8761,
      "юань": 8762,
      "як": 8763,
      "яс": 8764,
      "япо": 8765,
      "яна": 8766,
      "яки": 8767,
      "яры": 8768,
      "яль": 8769,
      "язе": 8770,
      "яница": 8771,
      "яновым": 8772,
      "стет": 8773,
      "стся": 8774,
      "стани": 8775,
      "стрем": 8776,
      "стены": 8777,
      "стиле": 8778,
      "стностях": 8779,
      "стевший": 8780,
      "енное": 8781,
      "енную": 8782,
      "енческие": 8783,
      "рано": 8784,
      "рада": 8785,
      "ране": 8786,
      "равля": 8787,
      "ратором": 8788,
      "равно": 8789,
      "раритет": 8790,
      "рори": 8791,
      "рональ": 8792,
      "робер": 8793,
      "ролик": 8794,
      "рожда": 8795,
      "ростов": 8796,
      "ровок": 8797,
      "рооборот": 8798,
      "рокмузыкант": 8799,
      "ноко": 8800,
      "номер": 8801,
      "новля": 8802,
      "номини": 8803,
      "ноября": 8804,
      "носит": 8805,
      "ночь": 8806,
      "новом": 8807,
      "носом": 8808,
      "новов": 8809,
      "нодоро": 8810,
      "нозвезда": 8811,
      "номинации": 8812,
      "коц": 8813,
      "ково": 8814,
      "кота": 8815,
      "коми": 8816,
      "коне": 8817,
      "кови": 8818,
      "коем": 8819,
      "костра": 8820,
      "копл": 8821,
      "кокупить": 8822,
      "комисс": 8823,
      "копей": 8824,
      "колад": 8825,
      "кооперации": 8826,
      "коул": 8827,
      "коземельных": 8828,
      "когд": 8829,
      "костров": 8830,
      "коекто": 8831,
      "рец": 8832,
      "реот": 8833,
      "реем": 8834,
      "рега": 8835,
      "ресто": 8836,
      "ресом": 8837,
      "реально": 8838,
      "режут": 8839,
      "реальный": 8840,
      "ребя": 8841,
      "реактивный": 8842,
      "ребенок": 8843,
      "пой": 8844,
      "пок": 8845,
      "поп": 8846,
      "пош": 8847,
      "поет": 8848,
      "поза": 8849,
      "пони": 8850,
      "погода": 8851,
      "повед": 8852,
      "погоду": 8853,
      "попере": 8854,
      "попла": 8855,
      "посет": 8856,
      "появля": 8857,
      "появляется": 8858,
      "пошла": 8859,
      "полага": 8860,
      "поху": 8861,
      "пошли": 8862,
      "покаж": 8863,
      "повлия": 8864,
      "погоды": 8865,
      "попала": 8866,
      "поэт": 8867,
      "позаба": 8868,
      "погран": 8869,
      "побере": 8870,
      "поможет": 8871,
      "поступил": 8872,
      "похит": 8873,
      "повернуть": 8874,
      "поводу": 8875,
      "поисках": 8876,
      "поссор": 8877,
      "понра": 8878,
      "поэте": 8879,
      "ане": 8880,
      "анне": 8881,
      "анные": 8882,
      "анность": 8883,
      "андро": 8884,
      "антон": 8885,
      "анес": 8886,
      "андронов": 8887,
      "анкет": 8888,
      "анкеты": 8889,
      "ален": 8890,
      "алжи": 8891,
      "алена": 8892,
      "годо": 8893,
      "гораз": 8894,
      "гоги": 8895,
      "горий": 8896,
      "годов": 8897,
      "говый": 8898,
      "гостоя": 8899,
      "голу": 8900,
      "готова": 8901,
      "голы": 8902,
      "гопеда": 8903,
      "голли": 8904,
      "тово": 8905,
      "торах": 8906,
      "тович": 8907,
      "тобя": 8908,
      "толога": 8909,
      "тоальбом": 8910,
      "ерским": 8911,
      "еррори": 8912,
      "вона": 8913,
      "вока": 8914,
      "воль": 8915,
      "вове": 8916,
      "воле": 8917,
      "вость": 8918,
      "вование": 8919,
      "вотво": 8920,
      "волом": 8921,
      "вождение": 8922,
      "волат": 8923,
      "вопервых": 8924,
      "вофранции": 8925,
      "восского": 8926,
      "вочерке": 8927,
      "еть": 8928,
      "етя": 8929,
      "еткоммента": 8930,
      "итрешения": 8931,
      "ингу": 8932,
      "инжен": 8933,
      "инвали": 8934,
      "инсуль": 8935,
      "ингом": 8936,
      "индоне": 8937,
      "иншот": 8938,
      "елу": 8939,
      "елей": 8940,
      "илы": 8941,
      "илла": 8942,
      "илон": 8943,
      "илдвум": 8944,
      "наш": 8945,
      "насо": 8946,
      "нама": 8947,
      "нави": 8948,
      "нача": 8949,
      "наве": 8950,
      "нации": 8951,
      "наут": 8952,
      "направ": 8953,
      "напал": 8954,
      "нашим": 8955,
      "наполи": 8956,
      "набира": 8957,
      "нашел": 8958,
      "находи": 8959,
      "надолго": 8960,
      "нашу": 8961,
      "натура": 8962,
      "насчет": 8963,
      "наказать": 8964,
      "найдет": 8965,
      "назначает": 8966,
      "насмеха": 8967,
      "наполе": 8968,
      "нашлось": 8969,
      "накопл": 8970,
      "вающ": 8971,
      "вашим": 8972,
      "вавший": 8973,
      "вающими": 8974,
      "вагнер": 8975,
      "соба": 8976,
      "сожал": 8977,
      "содействует": 8978,
      "созн": 8979,
      "собаку": 8980,
      "созывает": 8981,
      "соборе": 8982,
      "собака": 8983,
      "сопиль": 8984,
      "сочли": 8985,
      "еницы": 8986,
      "каро": 8987,
      "кари": 8988,
      "камер": 8989,
      "какра": 8990,
      "катер": 8991,
      "кады": 8992,
      "камь": 8993,
      "каун": 8994,
      "капит": 8995,
      "католи": 8996,
      "катеров": 8997,
      "карели": 8998,
      "камерах": 8999,
      "кадетского": 9000,
      "кипер": 9001,
      "кидывается": 9002,
      "кивающ": 9003,
      "зад": 9004,
      "закан": 9005,
      "завал": 9006,
      "забы": 9007,
      "заслу": 9008,
      "запас": 9009,
      "задет": 9010,
      "затро": 9011,
      "заплани": 9012,
      "заинтере": 9013,
      "застрой": 9014,
      "забрать": 9015,
      "загрузки": 9016,
      "захват": 9017,
      "задум": 9018,
      "замещения": 9019,
      "заподозр": 9020,
      "зачем": 9021,
      "заплатить": 9022,
      "задумала": 9023,
      "загоре": 9024,
      "засидел": 9025,
      "забросил": 9026,
      "заполучив": 9027,
      "зачали": 9028,
      "затону": 9029,
      "загуля": 9030,
      "зачитать": 9031,
      "зарекомендовал": 9032,
      "дор": 9033,
      "дост": 9034,
      "доно": 9035,
      "дови": 9036,
      "досто": 9037,
      "долю": 9038,
      "дону": 9039,
      "доказы": 9040,
      "допуст": 9041,
      "домом": 9042,
      "дохода": 9043,
      "договари": 9044,
      "доклады": 9045,
      "достой": 9046,
      "доходов": 9047,
      "нива": 9048,
      "нику": 9049,
      "ничи": 9050,
      "ниже": 9051,
      "никого": 9052,
      "нимом": 9053,
      "нибудь": 9054,
      "нитоальбом": 9055,
      "рис": 9056,
      "рича": 9057,
      "рической": 9058,
      "рионов": 9059,
      "рисков": 9060,
      "рившимся": 9061,
      "ричные": 9062,
      "тать": 9063,
      "таку": 9064,
      "такт": 9065,
      "таться": 9066,
      "такого": 9067,
      "тапов": 9068,
      "тарей": 9069,
      "циина": 9070,
      "мое": 9071,
      "мол": 9072,
      "моно": 9073,
      "моей": 9074,
      "моря": 9075,
      "мову": 9076,
      "мотра": 9077,
      "моды": 9078,
      "момента": 9079,
      "мосфере": 9080,
      "моказалось": 9081,
      "моих": 9082,
      "моторо": 9083,
      "мися": 9084,
      "миров": 9085,
      "мибу": 9086,
      "мировать": 9087,
      "мирия": 9088,
      "мишку": 9089,
      "ланой": 9090,
      "лади": 9091,
      "лаген": 9092,
      "латин": 9093,
      "ламан": 9094,
      "лагер": 9095,
      "лазов": 9096,
      "лаобъявл": 9097,
[...]
