{
  "version": "1.0",
  "truncation": null,
  "padding": null,
  "added_tokens": [
    {
      "id": 8257,
      "content": "<unk>",
      "single_word": false,
      "lstrip": false,
      "rstrip": false,
      "normalized": false,
      "special": true
    },
    {
      "id": 8258,
      "content": "<pad>",
      "single_word": false,
      "lstrip": false,
      "rstrip": false,
      "normalized": false,
      "special": true
    },
    {
      "id": 8259,
      "content": "<s>",
      "single_word": false,
      "lstrip": false,
      "rstrip": false,
      "normalized": false,
      "special": true
    },
    {
      "id": 8260,
      "content": "</s>",
      "single_word": false,
      "lstrip": false,
      "rstrip": false,
      "normalized": false,
      "special": true
    }
  ],
  "normalizer": null,
  "pre_tokenizer": {
    "type": "Whitespace"
  },
  "post_processor": null,
  "decoder": null,
  "model": {
    "type": "Unigram",
    "unk_id": 0,
    "vocab": [
      [
        "<unk>",
        1.0
      ],
      [
        "<pad>",
        1.0
      ],
      [
        "<s>",
        1.0
      ],
      [
        "</s>",
        1.0
      ],
      [
        ",",
        -3.0005624089889658
      ],
      [
        ".",
        -3.246452444538301
      ],
      [
        "и",
        -3.37209845096973
      ],
      [
        "е",
        -3.383506625781979
      ],
      [
        "а",
        -3.578144002056301
      ],
      [
        "й",
        -3.941846527769954
      ],
      [
        "м",
        -4.300179702812457
      ],
      [
        "ы",
        -4.302294055405733
      ],
      [
        "M",
        -4.312197893787701
      ],
      [
        "<",
        -4.312197893787701
      ],
      [
        "N",
        -4.312197893787701
      ],
      [
        ">",
        -4.312197893787701
      ],
      [
        "U",
        -4.312197893787701
      ],
      [
        "я",
        -4.3516441503916825
      ],
      [
        "х",
        -4.3975373661206945
      ],
      [
        "у",
        -4.467785277717729
      ],
      [
        "ов",
        -4.938375023920308
      ],
      [
        "о",
        -5.0185716558564
      ],
      [
        "ю",
        -5.09502733918643
      ],
      [
        "в",
        -5.161467398972322
      ],
      [
        "ой",
        -5.188401770774084
      ],
      [
        "т",
        -5.310493120630255
      ],
      [
        "с",
        -5.319864155976795
      ],
      [
        "ть",
        -5.3377704310291625
      ],
      [
        "ом",
        -5.372612554396014
      ],
      [
        "ся",
        -5.402547115620294
      ],
      [
        "ь",
        -5.422898496131602
      ],
      [
        "го",
        -5.456201736253669
      ],
      [
        "ых",
        -5.6293683500156435
      ],
      [
        "ая",
        -5.659565302928609
      ],
      [
        "год",
        -5.70351492743447
      ],
      [
        "ого",
        -5.718004672701637
      ],
      [
        "фото",
        -5.824889978187522
      ],
      [
        "ей",
        -5.868414320136661
      ],
      [
        "л",
        -5.908685397829826
      ],
      [
        "ет",
        -5.928655292664803
      ],
      [
        "н",
        -5.934606828082725
      ],
      [
        "это",
        -6.00730703362204
      ],
      [
        "к",
        -6.011892734287027
      ],
      [
        "ую",
        -6.033434439118153
      ],
      [
        "года",
        -6.06976232630187
      ],
      [
        "ми",
        -6.163614480467435
      ],
      [
        "россии",
        -6.344381357676599
      ],
      [
        "трамп",
        -6.396071487135138
      ],
      [
        "также",
        -6.39774062667698
      ],
      [
        "ами",
        -6.402296768773667
      ],
      [
        "ъ",
        -6.425566723816123
      ],
      [
        "не",
        -6.471896345506595
      ],
      [
        "ется",
        -6.474061620015533
      ],
      [
        "на",
        -6.482364769949585
      ],
      [
        "мерик",
        -6.5097285108819625
      ],
      [
        "оединенны",
        -6.518226948127218
      ],
      [
        "Ш",
        -6.52431046144799
      ],
      [
        "А",
        -6.52431046144799
      ],
      [
        "С",
        -6.524310461447993
      ],
      [
        "п",
        -6.527303039293001
      ],
      [
        "дмитри",
        -6.585203641194175
      ],
      [
        "по",
        -6.601828373699465
      ],
      [
        "ли",
        -6.633117798470413
      ],
      [
        "д",
        -6.657846337234138
      ],
      [
        "слейд",
        -6.659850555218262
      ],
      [
        "р",
        -6.683219390725071
      ],
      [
        "ной",
        -6.686846431233634
      ],
      [
        "президент",
        -6.716566676174387
      ],
      [
        "ем",
        -6.754972366195068
      ],
      [
        "тся",
        -6.762092491433135
      ],
      [
        "рф",
        -6.787827461839093
      ],
      [
        "ного",
        -6.827066973291908
      ],
      [
        "за",
        -6.837926831676294
      ],
      [
        "заявил",
        -6.838409953906882
      ],
      [
        "ась",
        -6.847672012811684
      ],
      [
        "октября",
        -6.851406850969606
      ],
      [
        "александр",
        -6.862884410613735
      ],
      [
        "ить",
        -6.914961551113837
      ],
      [
        "б",
        -6.927342026364146
      ],
      [
        "стран",
        -6.947445138496565
      ],
      [
        "ый",
        -6.996480884556504
      ],
      [
        "област",
        -7.0093187869422495
      ],
      [
        "врем",
        -7.012611866472647
      ],
      [
        "лет",
        -7.015038276392685
      ],
      [
        "дональд",
        -7.03972273888819
      ],
      [
        "г",
        -7.050981066354836
      ],
      [
        "ют",
        -7.053835405238238
      ],
      [
        "президента",
        -7.055627085042125
      ],
      [
        "ться",
        -7.068530434900252
      ],
      [
        "ах",
        -7.068559050836616
      ],
      [
        "медведев",
        -7.072409514074903
      ],
      [
        "котор",
        -7.078688932329981
      ],
      [
        "но",
        -7.117088713215856
      ],
      [
        "О",
        -7.117166535033129
      ],
      [
        "турци",
        -7.1349930443559675
      ],
      [
        "которые",
        -7.1401311701244525
      ],
      [
        "ранее",
        -7.1539772076433
      ],
      [
        "российски",
        -7.174000922632039
      ],
      [
        "ны",
        -7.195332713824894
      ],
      [
        "ок",
        -7.208903979791517
      ],
      [
        "тат",
        -7.213221119790081
      ],
      [
        "аты",
        -7.218633861536501
      ],
      [
        "словам",
        -7.237499895879568
      ],
      [
        "комм",
        -7.243430088857989
      ],
      [
        "ерсант",
        -7.245529726143328
      ],
      [
        "ный",
        -7.251427197591717
      ],
      [
        "лись",
        -7.25879384684221
      ],
      [
        "ки",
        -7.261806238910491
      ],
      [
        "стал",
        -7.280424687217516
      ],
      [
        "ко",
        -7.2914465811493
      ],
      [
        "про",
        -7.309535099693446
      ],
      [
        "первы",
        -7.31650351585586
      ],
      [
        "таки",
        -7.316852641851325
      ],
      [
        "само",
        -7.317156881209548
      ],
      [
        "ф",
        -7.324595694834839
      ],
      [
        "му",
        -7.335898294964632
      ],
      [
        "компани",
        -7.34847659444541
      ],
      [
        "систем",
        -7.361683247944572
      ],
      [
        "связ",
        -7.367938675121654
      ],
      [
        "лся",
        -7.371443289838602
      ],
      [
        "которы",
        -7.376237101411743
      ],
      [
        "путин",
        -7.379174508935274
      ],
      [
        "лось",
        -7.381982465256094
      ],
      [
        "сообщил",
        -7.392683493567382
      ],
      [
        "сь",
        -7.405402320353072
      ],
      [
        "числ",
        -7.410913590386649
      ],
      [
        "други",
        -7.410942173174951
      ],
      [
        "s",
        -7.411086645227559
      ],
      [
        "ла",
        -7.41299655902232
      ],
      [
        "серби",
        -7.41819949287113
      ],
      [
        "сторон",
        -7.420569454456203
      ],
      [
        "правительств",
        -7.42370216711978
      ],
      [
        "работ",
        -7.433860944558731
      ],
      [
        "ий",
        -7.444218402022548
      ],
      [
        "при",
        -7.4514801659324
      ],
      [
        "та",
        -7.453685862044541
      ],
      [
        "совет",
        -7.454197710999211
      ],
      [
        "владимир",
        -7.455942241234296
      ],
      [
        "ка",
        -7.467621607697319
      ],
      [
        "мир",
        -7.47599266043982
      ],
      [
        "ч",
        -7.47887363841894
      ],
      [
        "перв",
        -7.487383988796905
      ],
      [
        "ам",
        -7.490387335807489
      ],
      [
        "глав",
        -7.49286061011121
      ],
      [
        "ситуаци",
        -7.503717455318021
      ],
      [
        "тысяч",
        -7.503721433659701
      ],
      [
        "ать",
        -7.506141233074086
      ],
      [
        "отметил",
        -7.50876898778554
      ],
      [
        "от",
        -7.512431421095028
      ],
      [
        "политик",
        -7.525216733066403
      ],
      [
        "безопасности",
        -7.527016679940207
      ],
      [
        "глава",
        -7.541813824346177
      ],
      [
        "их",
        -7.55343312347668
      ],
      [
        "получил",
        -7.553873068435797
      ],
      [
        "должност",
        -7.583673426800069
      ],
      [
        "ые",
        -7.590725093655549
      ],
      [
        "банк",
        -7.591091249594443
      ],
      [
        "кой",
        -7.592998402789488
      ],
      [
        "вы",
        -7.605866002029288
      ],
      [
        "рамка",
        -7.6091091680697325
      ],
      [
        "свое",
        -7.611593359768139
      ],
      [
        "то",
        -7.622009560719462
      ],
      [
        "раз",
        -7.622825935908034
      ],
      [
        "ц",
        -7.63610733045595
      ],
      [
        "сентябр",
        -7.636148048478269
      ],
      [
        "c",
        -7.645030021177856
      ],
      [
        "ков",
        -7.65076508041573
      ],
      [
        "во",
        -7.651336606659445
      ],
      [
        "окт",
        -7.651441001791936
      ],
      [
        "ения",
        -7.65338097870422
      ],
      [
        "миллион",
        -7.67239078232317
      ],
      [
        "переговор",
        -7.674934385865223
      ],
      [
        "сказал",
        -7.676245239887065
      ],
      [
        "отвеча",
        -7.678335753269749
      ],
      [
        "из",
        -7.680952475154468
      ],
      [
        "аци",
        -7.682645880055316
      ],
      [
        "ич",
        -7.68415941593566
      ],
      [
        "власти",
        -7.685978273247423
      ],
      [
        "директор",
        -7.699555212759652
      ],
      [
        "ым",
        -7.701834635594393
      ],
      [
        "сотрудничеств",
        -7.701889810442435
      ],
      [
        "добавил",
        -7.703571465967647
      ],
      [
        "под",
        -7.709765550830246
      ],
      [
        "одна",
        -7.710643972491368
      ],
      [
        "вопрос",
        -7.717982844482652
      ],
      [
        "степаненко",
        -7.729660635182805
      ],
      [
        "администрации",
        -7.736570046408769
      ],
      [
        "работа",
        -7.738137401332032
      ],
      [
        "t",
        -7.742911533476698
      ],
      [
        "пере",
        -7.749283054294766
      ],
      [
        "зза",
        -7.753644589319757
      ],
      [
        "ись",
        -7.755244613260922
      ],
      [
        "российско",
        -7.755802875295229
      ],
      [
        "поддержк",
        -7.757653046959107
      ],
      [
        "очень",
        -7.758589408246827
      ],
      [
        "жизн",
        -7.760346885476159
      ],
      [
        "цен",
        -7.770866081183513
      ],
      [
        "просто",
        -7.772688238826088
      ],
      [
        "им",
        -7.776852162592506
      ],
      [
        "ку",
        -7.78528371139368
      ],
      [
        "информаци",
        -7.787746424283072
      ],
      [
        "з",
        -7.801955323463215
      ],
      [
        "нов",
        -7.805546087112882
      ],
      [
        "бъединенн",
        -7.807009372191354
      ],
      [
        "рганизация",
        -7.810077812011019
      ],
      [
        "Н",
        -7.817946858686991
      ],
      [
        "мин",
        -7.821075018379375
      ],
      [
        "против",
        -7.821451305204709
      ],
      [
        "люд",
        -7.8241735802904975
      ],
      [
        "москва",
        -7.827290078872278
      ],
      [
        "данным",
        -7.828455628563557
      ],
      [
        "вуч",
        -7.830014380279912
      ],
      [
        "республик",
        -7.849233496030649
      ],
      [
        "прессслужб",
        -7.8493379061917725
      ],
      [
        "человек",
        -7.850173254095521
      ],
      [
        "руб",
        -7.85229214433833
      ],
      [
        "создани",
        -7.856356787225506
      ],
      [
        "прав",
        -7.862829258266798
      ],
      [
        "перво",
        -7.8647430015099165
      ],
      [
        "начал",
        -7.866629970079908
      ],
      [
        "хамас",
        -7.867382803085472
      ],
      [
        "росси",
        -7.868044222990399
      ],
      [
        "включа",
        -7.87218761822028
      ],
      [
        "американски",
        -7.872390264478989
      ],
      [
        "проект",
        -7.88078738534009
      ],
      [
        "председател",
        -7.880874349821747
      ],
      [
        "сред",
        -7.886996231474448
      ],
      [
        "имеет",
        -7.890351799775225
      ],
      [
        "говорит",
        -7.89095318481461
      ],
      [
        "операци",
        -7.895434469449041
      ],
      [
        "a",
        -7.89629083683
      ],
      [
        "рынк",
        -7.896426487207174
      ],
      [
        "дел",
        -7.899519661400455
      ],
      [
        "интерес",
        -7.89958586244398
      ],
      [
        "g",
        -7.914069984591988
      ],
      [
        "косово",
        -7.914658479761925
      ],
      [
        "проблем",
        -7.914789675404695
      ],
      [
        "момент",
        -7.914917846541223
      ],
      [
        "азаров",
        -7.914978225753423
      ],
      [
        "степень",
        -7.91505583745568
      ],
      [
        "двух",
        -7.915883630660241
      ],
      [
        "удар",
        -7.919889519831013
      ],
      [
        "ную",
        -7.925813919654333
      ],
      [
        "ому",
        -7.930192013543332
      ],
      [
        "организаци",
        -7.934177664885309
      ],
      [
        "развити",
        -7.934687606747573
      ],
      [
        "n",
        -7.9418062110582515
      ],
      [
        "могут",
        -7.943671176289593
      ],
      [
        "ен",
        -7.94503565693887
      ],
      [
        "самолет",
        -7.946212840218971
      ],
      [
        "вицепремьер",
        -7.949286306664427
      ],
      [
        "реализаци",
        -7.9496349239911295
      ],
      [
        "соглашения",
        -7.949968693118316
      ],
      [
        "будут",
        -7.950904779078247
      ],
      [
        "министр",
        -7.952155297186872
      ],
      [
        "купит",
        -7.955849213069039
      ],
      [
        "ил",
        -7.9590840201206365
      ],
      [
        "ду",
        -7.961858585747848
      ],
      [
        "ия",
        -7.962023148259285
      ],
      [
        "заместител",
        -7.964066452324644
      ],
      [
        "новы",
        -7.96491679723306
      ],
      [
        "пол",
        -7.965533041030945
      ],
      [
        "работал",
        -7.971367112636345
      ],
      [
        "газа",
        -7.971510955385596
      ],
      [
        "вмест",
        -7.973014825974447
      ],
      [
        "y",
        -7.981167021717857
      ],
      [
        "четверг",
        -7.98507625778895
      ],
      [
        "плана",
        -7.990167662319312
      ],
      [
        "вопросам",
        -7.991245963074025
      ],
      [
        "сообщени",
        -7.991319158945958
      ],
      [
        "те",
        -7.991857562888182
      ],
      [
        "университет",
        -7.993745499895503
      ],
      [
        "e",
        -7.993900943533719
      ],
      [
        "предыдущ",
        -7.999735052689466
      ],
      [
        "серб",
        -8.004491527514965
      ],
      [
        "со",
        -8.006737394623023
      ],
      [
        "одно",
        -8.011755389725192
      ],
      [
        "возможно",
        -8.015129247346112
      ],
      [
        "ск",
        -8.021930891227917
      ],
      [
        "приштин",
        -8.02202342525831
      ],
      [
        "господин",
        -8.022024424264496
      ],
      [
        "белград",
        -8.02202979105042
      ],
      [
        "лидер",
        -8.022424833170891
      ],
      [
        "взаимодействи",
        -8.025621273385378
      ],
      [
        "ось",
        -8.032594551314467
      ],
      [
        "управлени",
        -8.033491002313914
      ],
      [
        "ии",
        -8.03455501832041
      ],
      [
        "сти",
        -8.03657515580219
      ],
      [
        "региона",
        -8.037556000347763
      ],
      [
        "сть",
        -8.042226476559241
      ],
      [
        "мири",
        -8.043321851440478
      ],
      [
        "ния",
        -8.043833471362353
      ],
      [
        "стало",
        -8.044671582465988
      ],
      [
        "ают",
        -8.04739954258904
      ],
      [
        "соглас",
        -8.051330982906617
      ],
      [
        "ш",
        -8.057617560249309
      ],
      [
        "российск",
        -8.064401980024192
      ],
      [
        "ком",
        -8.065086766909111
      ],
      [
        "ями",
        -8.072287444899988
      ],
      [
        "президентом",
        -8.075782654319054
      ],
      [
        "ях",
        -8.077221132842764
      ],
      [
        "ность",
        -8.080569773185612
      ],
      [
        "считает",
        -8.081474143191418
      ],
      [
        "программ",
        -8.085384583672788
      ],
      [
        "встреч",
        -8.090154240140464
      ],
      [
        "йти",
        -8.093301273137728
      ],
      [
        "известно",
        -8.099329398477089
      ],
      [
        "дом",
        -8.10031298930053
      ],
      [
        "строительств",
        -8.10071295885844
      ],
      [
        "видео",
        -8.103555482590584
      ],
      [
        "бо",
        -8.104484662324055
      ],
      [
        "миллениалы",
        -8.11067259405228
      ],
      [
        "рсант",
        -8.111459637380039
      ],
      [
        "нато",
        -8.11279076102427
      ],
      [
        "должн",
        -8.113070277929035
      ],
      [
        "защит",
        -8.115315556785847
      ],
      [
        "об",
        -8.117774781089736
      ],
      [
        "граждан",
        -8.121079737124132
      ],
      [
        "ным",
        -8.125764999872686
      ],
      [
        "пост",
        -8.128987473652831
      ],
      [
        "все",
        -8.130392934882234
      ],
      [
        "свои",
        -8.138448832939213
      ],
      [
        "бакалавр",
        -8.142150638459862
      ],
      [
        "ками",
        -8.142586890579773
      ],
      [
        "ции",
        -8.14272556113799
      ],
      [
        "произошл",
        -8.145322258837759
      ],
      [
        "тюрьм",
        -8.145433110521434
      ],
      [
        "ран",
        -8.149827952936615
      ],
      [
        "север",
        -8.152808052323316
      ],
      [
        "комме",
        -8.157930710361526
      ],
      [
        "воздушно",
        -8.160691243416595
      ],
      [
        "ру",
        -8.162300231140058
      ],
      [
        "i",
        -8.163388985693798
      ],
      [
        "территори",
        -8.163394753059272
      ],
      [
        "слова",
        -8.163403643090994
      ],
      [
        "он",
        -8.163519924769252
      ],
      [
        "ился",
        -8.168118345696158
      ],
      [
        "сп",
        -8.172181409457695
      ],
      [
        "причин",
        -8.172750190952659
      ],
      [
        "кого",
        -8.177576261644862
      ],
      [
        "едераци",
        -8.183038309102969
      ],
      [
        "газпром",
        -8.18564331752305
      ],
      [
        "продукци",
        -8.185852644971625
      ],
      [
        "премьерминистр",
        -8.186568591422962
      ],
      [
        "хотя",
        -8.186713851285583
      ],
      [
        "рубл",
        -8.186805492886348
      ],
      [
        "экспорт",
        -8.187337513716312
      ],
      [
        "ряд",
        -8.190840202326704
      ],
      [
        "ре",
        -8.193473805698478
      ],
      [
        "роман",
        -8.198980451301846
      ],
      [
        "участник",
        -8.1999684052516
      ],
      [
        "овать",
        -8.203251071430266
      ],
      [
        "сб",
        -8.209066720074947
      ],
      [
        "пла",
        -8.21268800784345
      ],
      [
        "ости",
        -8.215019909191382
      ],
      [
        "которых",
        -8.217710040783938
      ],
      [
        "миллениал",
        -8.219499600882939
      ],
      [
        "представител",
        -8.22339255906213
      ],
      [
        "Р",
        -8.231083349360778
      ],
      [
        "Ф",
        -8.231083349360782
      ],
      [
        "червинский",
        -8.231208511953662
      ],
      [
        "военн",
        -8.234145101399289
      ],
      [
        "f",
        -8.235046299271232
      ],
      [
        "урегулировани",
        -8.238103975020797
      ],
      [
        "именно",
        -8.238632019152046
      ],
      [
        "вести",
        -8.239753644098954
      ],
      [
        "наши",
        -8.239976855572854
      ],
      [
        "пример",
        -8.241275986878613
      ],
      [
        "рубле",
        -8.242520328968196
      ],
      [
        "его",
        -8.24344609473764
      ],
      [
        "выступа",
        -8.245632420085796
      ],
      [
        "отношени",
        -8.245970149309517
      ],
      [
        "дело",
        -8.249074406303475
      ],
      [
        "план",
        -8.249336344460822
      ],
      [
        "нескольк",
        -8.250882540286174
      ],
      [
        "l",
        -8.252196242812863
      ],
      [
        "конфликта",
        -8.259000901580356
      ],
      [
        "являет",
        -8.2635974586053
      ],
      [
        "внутренне",
        -8.263941091813072
      ],
      [
        "ни",
        -8.264264952071663
      ],
      [
        "k",
        -8.264456380534712
      ],
      [
        "ается",
        -8.265551116126913
      ],
      [
        "гос",
        -8.267004821886331
      ],
      [
        "народ",
        -8.268670216024525
      ],
      [
        "семь",
        -8.276215062198425
      ],
      [
        "европ",
        -8.276722899193084
      ],
      [
        "вашингтон",
        -8.278702401168603
      ],
      [
        "резолюци",
        -8.278702408350053
      ],
      [
        "результат",
        -8.278702437106457
      ],
      [
        "михаил",
        -8.278707462124355
      ],
      [
        "сил",
        -8.278806858337848
      ],
      [
        "окончил",
        -8.279417724403228
      ],
      [
        "сербски",
        -8.281082069972046
      ],
      [
        "ит",
        -8.283280851800132
      ],
      [
        "рынка",
        -8.286867199697385
      ],
      [
        "же",
        -8.287795696231072
      ],
      [
        "ст",
        -8.288285915285774
      ],
      [
        "ение",
        -8.288833093627495
      ],
      [
        "позволит",
        -8.290704554165854
      ],
      [
        "самы",
        -8.294877140507413
      ],
      [
        "ует",
        -8.303038891790179
      ],
      [
        "па",
        -8.306013338566187
      ],
      [
        "дома",
        -8.309240863306734
      ],
      [
        "сам",
        -8.310825054413655
      ],
      [
        "ограничени",
        -8.314229257203946
      ],
      [
        "военны",
        -8.320217384126925
      ],
      [
        "ыми",
        -8.325562132214348
      ],
      [
        "явля",
        -8.326027446215244
      ],
      [
        "ие",
        -8.327028470716659
      ],
      [
        "маунселхаус",
        -8.328702396979834
      ],
      [
        "баронет",
        -8.328703186679112
      ],
      [
        "петросян",
        -8.32870432182114
      ],
      [
        "ледокол",
        -8.328710837912077
      ],
      [
        "борьб",
        -8.328713163200272
      ],
      [
        "подчеркнул",
        -8.330219492275742
      ],
      [
        "одним",
        -8.331293452190359
      ],
      [
        "рассказал",
        -8.331565311352588
      ],
      [
        "форум",
        -8.332004224270118
      ],
      [
        "движение",
        -8.33203566657802
      ],
      [
        "технологи",
        -8.338043757896017
      ],
      [
        "друг",
        -8.342408003781566
      ],
      [
        "доно",
        -8.342639974878074
      ],
      [
        "дела",
        -8.34709238346452
      ],
      [
        "израиле",
        -8.350316704377464
      ],
      [
        "жен",
        -8.360935977722331
      ],
      [
        "од",
        -8.363629444911288
      ],
      [
        "мнени",
        -8.365345360849366
      ],
      [
        "бывши",
        -8.369738344794738
      ],
      [
        "большо",
        -8.370118823697037
      ],
      [
        "компаний",
        -8.371179073116638
      ],
      [
        "топлив",
        -8.372697031531342
      ],
      [
        "украински",
        -8.376097700075295
      ],
      [
        "групп",
        -8.381245069154044
      ],
      [
        "4",
        -8.381333975927202
      ],
      [
        "сектор",
        -8.381811359536094
      ],
      [
        "подрыв",
        -8.3821990213354
      ],
      [
        "объем",
        -8.382271493676212
      ],
      [
        "россиян",
        -8.383979452291408
      ],
      [
        "израиля",
        -8.385941429198134
      ],
      [
        "дронов",
        -8.39091047193771
      ],
      [
        "смотря",
        -8.391978572750848
      ],
      [
        "ость",
        -8.392099648581022
      ],
      [
        "ve",
        -8.395397646084824
      ],
      [
        "журналист",
        -8.39704000383746
      ],
      [
        "министерств",
        -8.397820027159488
      ],
      [
        "оссийска",
        -8.398918577609154
      ],
      [
        "всу",
        -8.401566390851695
      ],
      [
        "э",
        -8.403075655323118
      ],
      [
        "конфликт",
        -8.403627403857026
      ],
      [
        "уточн",
        -8.405249289449399
      ],
      [
        "подробн",
        -8.407540920813302
      ],
      [
        "итог",
        -8.408878100450224
      ],
      [
        "конц",
        -8.409881067755407
      ],
      [
        "разработк",
        -8.411191838839805
      ],
      [
        "назвал",
        -8.412598164356409
      ],
      [
        "дне",
        -8.41262175487449
      ],
      [
        "да",
        -8.414663340142457
      ],
      [
        "решения",
        -8.41701647359897
      ],
      [
        "истори",
        -8.41952066287936
      ],
      [
        "еров",
        -8.42046028545636
      ],
      [
        "долго",
        -8.421008619427955
      ],
      [
        "интернет",
        -8.421190659570856
      ],
      [
        "шь",
        -8.422810987824207
      ],
      [
        "говорил",
        -8.425219546675171
      ],
      [
        "цев",
        -8.425779689175645
      ],
      [
        "слов",
        -8.430053447382154
      ],
      [
        "штаб",
        -8.430396767489217
      ],
      [
        "ти",
        -8.431129619708818
      ],
      [
        "пользовател",
        -8.432066493722203
      ],
      [
        "ильхам",
        -8.436899114240166
      ],
      [
        "серге",
        -8.437133767979395
      ],
      [
        "которой",
        -8.437922436172794
      ],
      [
        "бело",
        -8.439349079689478
      ],
      [
        "около",
        -8.440681643219758
      ],
      [
        "одн",
        -8.440848748569785
      ],
      [
        "юмор",
        -8.441245341938156
      ],
      [
        "ью",
        -8.441308208784537
      ],
      [
        "пор",
        -8.441410805693412
      ],
      [
        "команд",
        -8.443088262762473
      ],
      [
        "рас",
        -8.445100771125901
      ],
      [
        "часть",
        -8.446047600739664
      ],
      [
        "ние",
        -8.446656054357957
      ],
      [
        "al",
        -8.448528071433106
      ],
      [
        "которо",
        -8.448594999355478
      ],
      [
        "хотел",
        -8.451458028500276
      ],
      [
        "вой",
        -8.452560872509245
      ],
      [
        "модель",
        -8.456842894330782
      ],
      [
        "пред",
        -8.457907207473497
      ],
      [
        "es",
        -8.458166071783193
      ],
      [
        "государства",
        -8.458352257117586
      ],
      [
        "производств",
        -8.459197684203312
      ],
      [
        "национально",
        -8.45956817386485
      ],
      [
        "арми",
        -8.46167443216536
      ],
      [
        "иностранны",
        -8.462670142241475
      ],
      [
        "втор",
        -8.464208905185156
      ],
      [
        "времен",
        -8.464211030324606
      ],
      [
        "люб",
        -8.466343717728762
      ],
      [
        "o",
        -8.46792580940658
      ],
      [
        "ям",
        -8.47059136017487
      ],
      [
        "помощь",
        -8.471311945126573
      ],
      [
        "нужн",
        -8.471751674043984
      ],
      [
        "университета",
        -8.472569924696845
      ],
      [
        "позици",
        -8.473383036699262
      ],
      [
        "отношения",
        -8.474827212281902
      ],
      [
        "культур",
        -8.483024487753699
      ],
      [
        "суд",
        -8.485712846459279
      ],
      [
        "наше",
        -8.48580259915503
      ],
      [
        "сети",
        -8.48704677299777
      ],
      [
        "he",
        -8.487395885248963
      ],
      [
        "данны",
        -8.488073692609966
      ],
      [
        "2",
        -8.489570827617285
      ],
      [
        "ред",
        -8.493458174513323
      ],
      [
        "благодар",
        -8.495055937113168
      ],
      [
        "сегодня",
        -8.495601550221483
      ],
      [
        "август",
        -8.495714124091498
      ],
      [
        "договоренност",
        -8.495795001075582
      ],
      [
        "период",
        -8.495831713074557
      ],
      [
        "com",
        -8.495915168923899
      ],
      [
        "кобы",
        -8.49664235115263
      ],
      [
        "приход",
        -8.497525955234487
      ],
      [
        "четыре",
        -8.4975531240648
      ],
      [
        "украины",
        -8.498993213003274
      ],
      [
        "лиц",
        -8.499244258001946
      ],
      [
        "позволя",
        -8.501003611105226
      ],
      [
        "некоторые",
        -8.501803669372649
      ],
      [
        "тур",
        -8.50242379488068
      ],
      [
        "re",
        -8.50299593524685
      ],
      [
        "кино",
        -8.50684984058891
      ],
      [
        "находи",
        -8.509276850616047
      ],
      [
        "ает",
        -8.514968799089376
      ],
      [
        "род",
        -8.517751955049668
      ],
      [
        "роме",
        -8.520797680524856
      ],
      [
        "ста",
        -8.522676425838391
      ],
      [
        "d",
        -8.522902021163668
      ],
      [
        "города",
        -8.524006466496232
      ],
      [
        "ию",
        -8.52464513264065
      ],
      [
        "случае",
        -8.525638521075384
      ],
      [
        "ности",
        -8.525796617532386
      ],
      [
        "дня",
        -8.527302074020206
      ],
      [
        "кра",
        -8.527458065790961
      ],
      [
        "бел",
        -8.528944526199705
      ],
      [
        "ации",
        -8.529051869745507
      ],
      [
        "женщина",
        -8.532563593735043
      ],
      [
        "закон",
        -8.53275118288117
      ],
      [
        "fi",
        -8.543577139954586
      ],
      [
        "ном",
        -8.546427835386268
      ],
      [
        "течени",
        -8.546554827839477
      ],
      [
        "занимал",
        -8.548769660110926
      ],
      [
        "служб",
        -8.550805715515182
      ],
      [
        "советник",
        -8.5508996155305
      ],
      [
        "ьше",
        -8.550964963037412
      ],
      [
        "де",
        -8.551321964538563
      ],
      [
        "обмен",
        -8.551950250515725
      ],
      [
        "запрет",
        -8.555013932738238
      ],
      [
        "ра",
        -8.555694794275935
      ],
      [
        "ится",
        -8.555981096493024
      ],
      [
        "офицер",
        -8.558166250864968
      ],
      [
        "губернатор",
        -8.558213063514335
      ],
      [
        "интервью",
        -8.55821841843907
      ],
      [
        "нефтепродукт",
        -8.558287165614278
      ],
      [
        "решил",
        -8.558533169980217
      ],
      [
        "направлени",
        -8.559166007909578
      ],
      [
        "должен",
        -8.559302735554656
      ],
      [
        "доктор",
        -8.55954037126083
      ],
      [
        "роль",
        -8.560543206735748
      ],
      [
        "сустав",
        -8.561180339405313
      ],
      [
        "ообще",
        -8.56185897186824
      ],
      [
        "подготовк",
        -8.562182154747028
      ],
      [
        "развитие",
        -8.563308232031865
      ],
      [
        "новак",
        -8.565577899288915
      ],
      [
        "сво",
        -8.565833282922526
      ],
      [
        "привел",
        -8.566847229854641
      ],
      [
        "пространств",
        -8.568361364982508
      ],
      [
        "спис",
        -8.570114607931254
      ],
      [
        "мест",
        -8.571084824524984
      ],
      [
        "пят",
        -8.576356598520142
      ],
      [
        "обвинени",
        -8.577399632821503
      ],
      [
        "женщин",
        -8.578735517768429
      ],
      [
        "правительство",
        -8.579832442207575
      ],
      [
        "вышл",
        -8.581156658769501
      ],
      [
        "многи",
        -8.581576001042992
      ],
      [
        "ских",
        -8.583979352041059
      ],
      [
        "штат",
        -8.584269420138856
      ],
      [
        "свет",
        -8.58457794627216
      ],
      [
        "вкуп",
        -8.586815426302335
      ],
      [
        "право",
        -8.591616724795209
      ],
      [
        "мурманск",
        -8.592709013370705
      ],
      [
        "заложник",
        -8.593684067903668
      ],
      [
        "готов",
        -8.597630266443852
      ],
      [
        "лн",
        -8.601520112476676
      ],
      [
        "член",
        -8.601528308252247
      ],
      [
        "er",
        -8.602977471995715
      ],
      [
        "границ",
        -8.604251531503847
      ],
      [
        "март",
        -8.611716867671554
      ],
      [
        "разу",
        -8.618381799389754
      ],
      [
        "газопровод",
        -8.619283847815579
      ],
      [
        "ракет",
        -8.619419892137921
      ],
      [
        "начала",
        -8.62215418922615
      ],
      [
        "кадр",
        -8.622468205555062
      ],
      [
        "день",
        -8.623488472830745
      ],
      [
        "кинематографи",
        -8.624879727569434
      ],
      [
        "финлянди",
        -8.624879727789015
      ],
      [
        "wells",
        -8.624879735196878
      ],
      [
        "фестивал",
        -8.624879809700207
      ],
      [
        "контракт",
        -8.62494480669531
      ],
      [
        "госорган",
        -8.625076010599269
      ],
      [
        "незаконно",
        -8.625104635446405
      ],
      [
        "зампред",
        -8.625126971116654
      ],
      [
        "что",
        -8.625395946330649
      ],
      [
        "амопровозглашенн",
        -8.625716834153529
      ],
      [
        "порту",
        -8.625941772305923
      ],
      [
        "алиев",
        -8.626243759332294
      ],
      [
        "школ",
        -8.626335837547037
      ],
      [
        "зумеров",
        -8.626390338966562
      ],
      [
        "вечер",
        -8.626598747442266
      ],
      [
        "зумеры",
        -8.628074550763188
      ],
      [
        "район",
        -8.632158406258396
      ],
      [
        "ло",
        -8.63523378309639
      ],
      [
        "ж",
        -8.637810080163613
      ],
      [
        "центр",
        -8.638880290857548
      ],
      [
        "се",
        -8.63891245690674
      ],
      [
        "участвовал",
        -8.639602398291014
      ],
      [
        "вооруженны",
        -8.641308157339289
      ],
      [
        "помощ",
        -8.643294820955779
      ],
      [
        "партии",
        -8.644693160174556
      ],
      [
        "теле",
        -8.646102268259115
      ],
      [
        "газе",
        -8.646312554662348
      ],
      [
        "ились",
        -8.648919246155195
      ],
      [
        "пер",
        -8.649715128953813
      ],
      [
        "ируют",
        -8.65052223429016
      ],
      [
        "постав",
        -8.652574474569876
      ],
      [
        "ят",
        -8.653160147024021
      ],
      [
        "подпис",
        -8.655665946026957
      ],
      [
        "написал",
        -8.65970815670467
      ],
      [
        "парламент",
        -8.660984722403429
      ],
      [
        "фунт",
        -8.662499480181955
      ],
      [
        "нем",
        -8.663497770290117
      ],
      [
        "ви",
        -8.66446503260418
      ],
      [
        "расследовани",
        -8.665064462654842
      ],
      [
        "муж",
        -8.666641672304065
      ],
      [
        "нескольки",
        -8.666807167481133
      ],
      [
        "заседани",
        -8.672269545335713
      ],
      [
        "украине",
        -8.674079630780524
      ],
      [
        "сайт",
        -8.675975001935901
      ],
      [
        "ска",
        -8.678125572162031
      ],
      [
        "заявлял",
        -8.679183599015605
      ],
      [
        "лиш",
        -8.679745144610283
      ],
      [
        "войн",
        -8.68447986780411
      ],
      [
        "качеств",
        -8.687300743939373
      ],
      [
        "товар",
        -8.688196206479793
      ],
      [
        "ро",
        -8.68969019487009
      ],
      [
        "открыт",
        -8.690414260825712
      ],
      [
        "медицин",
        -8.691566256284554
      ],
      [
        "издани",
        -8.692216751205411
      ],
      [
        "эксперт",
        -8.695482941484107
      ],
      [
        "усадьб",
        -8.696308413210826
      ],
      [
        "флорид",
        -8.696310637852996
      ],
      [
        "обязательства",
        -8.696313287840468
      ],
      [
        "амирамов",
        -8.696316770134889
      ],
      [
        "машин",
        -8.696391471545258
      ],
      [
        "объявил",
        -8.696752734875506
      ],
      [
        "w",
        -8.697134875572525
      ],
      [
        "оружия",
        -8.697145547135406
      ],
      [
        "внимани",
        -8.69745127162893
      ],
      [
        "поз",
        -8.697475190996844
      ],
      [
        "режим",
        -8.697628833148276
      ],
      [
        "ально",
        -8.69777892550572
      ],
      [
        "скольк",
        -8.699637422392286
      ],
      [
        "деньг",
        -8.70055129418224
      ],
      [
        "поэт",
        -8.700920605642672
      ],
      [
        "соглашение",
        -8.701073813584182
      ],
      [
        "возможность",
        -8.701928863775539
      ],
      [
        "активно",
        -8.701997551899908
      ],
      [
        "руководство",
        -8.703891356173875
      ],
      [
        "украин",
        -8.70457100152452
      ],
      [
        "порт",
        -8.705198632211824
      ],
      [
        "ва",
        -8.705671847023485
      ],
      [
        "федера",
        -8.708151770023708
      ],
      [
        "материале",
        -8.708932199976246
      ],
      [
        "родил",
        -8.709304074091929
      ],
      [
        "воз",
        -8.712942758313115
      ],
      [
        "детал",
        -8.713914231671188
      ],
      [
        "занимает",
        -8.716363430253205
      ],
      [
        "финансов",
        -8.716793488885065
      ],
      [
        "авиа",
        -8.716925130238948
      ],
      [
        "мало",
        -8.718268196925743
      ],
      [
        "v",
        -8.718957478416355
      ],
      [
        "слав",
        -8.719055751175183
      ],
      [
        "стан",
        -8.719472480145928
      ],
      [
        "созда",
        -8.720854055542603
      ],
      [
        "ке",
        -8.721509956405244
      ],
      [
        "сербск",
        -8.724671393426963
      ],
      [
        "федеральн",
        -8.725387233048938
      ],
      [
        "орган",
        -8.726103810694873
      ],
      [
        "так",
        -8.728166289219619
      ],
      [
        "обеспечени",
        -8.728676196589303
      ],
      [
        "до",
        -8.728913725837984
      ],
      [
        "подписан",
        -8.730681580018206
      ],
      [
        "сви",
        -8.731041037890787
      ],
      [
        "эта",
        -8.732254320028472
      ],
      [
        "возрасте",
        -8.732448105100996
      ],
      [
        "b",
        -8.733360490891119
      ],
      [
        "новой",
        -8.733635638844712
      ],
      [
        "ме",
        -8.737821800051663
      ],
      [
        "ский",
        -8.737863635575941
      ],
      [
        "дет",
        -8.738454289254552
      ],
      [
        "израиль",
        -8.73860662687267
      ],
      [
        "решение",
        -8.73873691157624
      ],
      [
        "извест",
        -8.738837728291886
      ],
      [
        "слев",
        -8.739831063047205
      ],
      [
        "ец",
        -8.739934488042808
      ],
      [
        "недел",
        -8.739972462282443
      ],
      [
        "власт",
        -8.740809452521725
      ],
      [
        "скандал",
        -8.741549686859123
      ],
      [
        "целя",
        -8.7418857255722
      ],
      [
        "стане",
        -8.744184562535578
      ],
      [
        "международны",
        -8.744701607750702
      ],
      [
        "ал",
        -8.746481014012389
      ],
      [
        "больш",
        -8.747601517109
      ],
      [
        "мощност",
        -8.749017671399793
      ],
      [
        "совместно",
        -8.749454734930897
      ],
      [
        "оператор",
        -8.749706027699588
      ],
      [
        "летн",
        -8.751226913257813
      ],
      [
        "ролик",
        -8.752203365004878
      ],
      [
        "уда",
        -8.752364473770154
      ],
      [
        "ты",
        -8.754322734463848
      ],
      [
        "вшего",
        -8.755258341552581
      ],
      [
        "стать",
        -8.75844530759885
      ],
      [
        "ное",
        -8.758481486486097
      ],
      [
        "ман",
        -8.759553463922536
      ],
      [
        "партнер",
        -8.761518844939808
      ],
      [
        "слу",
        -8.761784689835396
      ],
      [
        "тако",
        -8.765285939653428
      ],
      [
        "мисс",
        -8.76748905999493
      ],
      [
        "срок",
        -8.767599828198607
      ],
      [
        "кампани",
        -8.768751937433226
      ],
      [
        "состав",
        -8.770944046122525
      ],
      [
        "премьер",
        -8.77150941453221
      ],
      [
        "фонд",
        -8.772863484971385
      ],
      [
        "эксплуатаци",
        -8.773231375940782
      ],
      [
        "мониторинг",
        -8.773231375947535
      ],
      [
        "треугольник",
        -8.773231375947987
      ],
      [
        "инфраструктур",
        -8.773231621165761
      ],
      [
        "анастаси",
        -8.773231633181346
      ],
      [
        "legion",
        -8.773232086722622
      ],
      [
        "карьер",
        -8.773236130173242
      ],
      [
        "германи",
        -8.77323615322931
      ],
      [
        "книг",
        -8.77341253551402
      ],
      [
        "выполнени",
        -8.77342334562594
      ],
      [
        "предусматрива",
        -8.77351616752902
      ],
      [
        "подобны",
        -8.77372187916929
      ],
      [
        "безопасность",
        -8.77385175113608
      ],
      [
        "обороны",
        -8.773890053141017
      ],
      [
        "поток",
        -8.774801221172222
      ],
      [
        "шесть",
        -8.775484870334436
      ],
      [
        "месяц",
        -8.775985171967942
      ],
      [
        "выразил",
        -8.776138260501952
      ],
      [
        "зеленский",
        -8.776437611492506
      ],
      [
        "получила",
        -8.776479695672636
      ],
      [
        "военно",
        -8.77684375341482
      ],
      [
        "снижени",
        -8.776891495099814
      ],
      [
        "провел",
        -8.778576286211308
      ],
      [
        "своем",
        -8.77872306700893
      ],
      [
        "участвова",
        -8.780227799992774
      ],
      [
        "курс",
        -8.781602087802478
      ],
      [
        "ле",
        -8.783810143531998
      ],
      [
        "сторонник",
        -8.783975533689674
      ],
      [
        "участи",
        -8.784797811401575
      ],
      [
        "кур",
        -8.786210166471886
      ],
      [
        "ответ",
        -8.786361266169953
      ],
      [
        "кажд",
        -8.787044216524453
      ],
      [
        "справ",
        -8.788285373961063
      ],
      [
        "частност",
        -8.789890376346456
      ],
      [
        "когда",
        -8.790066295835189
      ],
      [
        "получи",
        -8.793378532645137
      ],
      [
        "хо",
        -8.793440743813129
      ],
      [
        "ro",
        -8.793880518654664
      ],
      [
        "z",
        -8.794324980625806
      ],
      [
        "важно",
        -8.794965545041372
      ],
      [
        "парти",
        -8.79605699263902
      ],
      [
        "соцсет",
        -8.797771676587878
      ],
      [
        "старши",
        -8.797957574033452
      ],
      [
        "рос",
        -8.801649306095943
      ],
      [
        "палат",
        -8.80262057944989
      ],
      [
        "турецки",
        -8.803567862373974
      ],
      [
        "попытк",
        -8.805144242468193
      ],
      [
        "цы",
        -8.805461288048466
      ],
      [
        "жестк",
        -8.806983348113961
      ],
      [
        "огн",
        -8.808241586836868
      ],
      [
        "мо",
        -8.80837225355417
      ],
      [
        "ших",
        -8.809577364949469
      ],
      [
        "ких",
        -8.8110346245161
      ],
      [
        "агентств",
        -8.811278229228131
      ],
      [
        "банков",
        -8.813033675366382
      ],
      [
        "евро",
        -8.814496072939306
      ],
      [
        "разны",
        -8.814658878749821
      ],
      [
        "противо",
        -8.815949694724443
      ],
      [
        "кита",
        -8.817501152430452
      ],
      [
        "молод",
        -8.819617479526444
      ],
      [
        "производител",
        -8.82084182806269
      ],
      [
        "ими",
        -8.822707638140738
      ],
      [
        "справочник",
        -8.824568367357939
      ],
      [
        "экспрессгазет",
        -8.824655175272776
      ],
      [
        "ющего",
        -8.827064303947353
      ],
      [
        "национальн",
        -8.829770288172462
      ],
      [
        "социальн",
        -8.829974377569545
      ],
      [
        "вуд",
        -8.831268890910316
      ],
      [
        "стар",
        -8.831930796558847
      ],
      [
        "фи",
        -8.833263136855475
      ],
      [
        "документ",
        -8.834033822861787
      ],
      [
        "журналиста",
        -8.834976716831607
      ],
      [
        "меры",
        -8.83613655443278
      ],
      [
        "сотрудник",
        -8.83724228471943
      ],
      [
        "m",
        -8.837817380726706
      ],
      [
        "вши",
        -8.83819151051617
      ],
      [
        "действия",
        -8.840689290721363
      ],
      [
        "цифр",
        -8.841288162353234
      ],
      [
        "деятельност",
        -8.841867434858404
      ],
      [
        "государств",
        -8.841932568505314
      ],
      [
        "система",
        -8.842664099180222
      ],
      [
        "агентства",
        -8.84295512022272
      ],
      [
        "ход",
        -8.843309911249314
      ],
      [
        "зам",
        -8.844349999560867
      ],
      [
        "самолета",
        -8.845550583994205
      ],
      [
        "генерал",
        -8.847371313738492
      ],
      [
        "кам",
        -8.847684909871802
      ],
      [
        "алексе",
        -8.847697970655219
      ],
      [
        "нтов",
        -8.851075188319772
      ],
      [
        "бес",
        -8.852618532077003
      ],
      [
        "миллиард",
        -8.85399586202834
      ],
      [
        "конгресс",
        -8.854902557076453
      ],
      [
        "инцидент",
        -8.85656471335565
      ],
      [
        "узбекистан",
        -8.856564716631194
      ],
      [
        "эрдоган",
        -8.856564717371736
      ],
      [
        "душанбе",
        -8.856564772515615
      ],
      [
        "церемони",
        -8.856564777756994
      ],
      [
        "бензин",
        -8.856567808807261
      ],
      [
        "девушк",
        -8.856572690982953
      ],
      [
        "титул",
        -8.856581029215702
      ],
      [
        "разговор",
        -8.856886406301271
      ],
      [
        "влияни",
        -8.857520649983744
      ],
      [
        "выборах",
        -8.857553261574262
      ],
      [
        "прекрати",
        -8.85826469507247
      ],
      [
        "очередь",
        -8.859311457589653
      ],
      [
        "обращени",
        -8.859586003510339
      ],
      [
        "транс",
        -8.859606360808145
      ],
      [
        "египт",
        -8.860657127076419
      ],
      [
        "поиск",
        -8.861406091994358
      ],
      [
        "доступ",
        -8.861940926811313
      ],
      [
        "выполня",
        -8.862671109256453
      ],
      [
        "мира",
        -8.863223662574887
      ],
      [
        "служил",
        -8.863968385092877
      ],
      [
        "ноябр",
        -8.864267372258489
      ],
      [
        "апрел",
        -8.864296631581105
      ],
      [
        "думаю",
        -8.864895673984531
      ],
      [
        "шутк",
        -8.865912158266744
      ],
      [
        "жител",
        -8.866141887919069
      ],
      [
        "пр",
        -8.866860585013743
      ],
      [
        "заключенны",
        -8.867660237193103
      ],
      [
        "часто",
        -8.868130853185338
      ],
      [
        "ракеты",
        -8.870982344655499
      ],
      [
        "стабильност",
        -8.871261310748451
      ],
      [
        "сбор",
        -8.872296690621669
      ],
      [
        "силам",
        -8.875168006230693
      ],
      [
        "представляет",
        -8.87601580625547
      ],
      [
        "усили",
        -8.876113912977143
      ],
      [
        "котором",
        -8.877007938035531
      ],
      [
        "главой",
        -8.877711536427777
      ],
      [
        "ировать",
        -8.878678174723028
      ],
      [
        "азербайджански",
        -8.878773318511191
      ],
      [
        "сбу",
        -8.878985817429603
      ],
      [
        "лева",
        -8.879998502461001
      ],
      [
        "проекта",
        -8.884274662375228
      ],
      [
        "ан",
        -8.884855016968979
      ],
      [
        "стала",
        -8.889245042634979
      ],
      [
        "ин",
        -8.889280904988526
      ],
      [
        "брак",
        -8.889895648708157
      ],
      [
        "ту",
        -8.890007005379926
      ],
      [
        "мене",
        -8.890586570780757
      ],
      [
        "знаком",
        -8.891798839225077
      ],
      [
        "известны",
        -8.891953684725554
      ],
      [
        "ссо",
        -8.892211347285782
      ],
      [
        "косовоалбански",
        -8.893282331782935
      ],
      [
        "последни",
        -8.893466956603282
      ],
      [
        "вооружени",
        -8.893825366804302
      ],
      [
        "вых",
        -8.894276804086884
      ],
      [
        "стоит",
        -8.894606920321063
      ],
      [
        "ев",
        -8.897476485320505
      ],
      [
        "сентябре",
        -8.899891129218908
      ],
      [
        "судно",
        -8.900159253585096
      ],
      [
        "своим",
        -8.900841982863057
      ],
      [
        "имел",
        -8.900860548372236
      ],
      [
        "ключев",
        -8.901388763418373
      ],
      [
        "выше",
        -8.902396840547222
      ],
      [
        "1",
        -8.905185486937226
      ],
      [
        "рост",
        -8.908578603503592
      ],
      [
        "запад",
        -8.90892606243385
      ],
      [
        "мид",
        -8.910466062408942
      ],
      [
        "эс",
        -8.910834955775886
      ],
      [
        "дн",
        -8.913325833303984
      ],
      [
        "международно",
        -8.913441532710912
      ],
      [
        "компания",
        -8.916174540956224
      ],
      [
        "жена",
        -8.916262696671165
      ],
      [
        "карт",
        -8.917102702367401
      ],
      [
        "китай",
        -8.918669164249017
      ],
      [
        "дополнительны",
        -8.918863561198794
      ],
      [
        "спрос",
        -8.920239591450851
      ],
      [
        "заключ",
        -8.9209535232022
      ],
      [
        "aza",
        -8.921334980144184
      ],
      [
        "катар",
        -8.921724022974134
      ],
      [
        "предложил",
        -8.922672213813406
      ],
      [
        "тей",
        -8.92325574364836
      ],
      [
        "американск",
        -8.923523443429536
      ],
      [
        "андре",
        -8.92633046130642
      ],
      [
        "факт",
        -8.928093561303065
      ],
      [
        "воздушн",
        -8.92904745517481
      ],
      [
        "мето",
        -8.929449471951276
      ],
      [
        "бюджет",
        -8.92951772271233
      ],
      [
        "ma",
        -8.93014221886261
      ],
      [
        "нам",
        -8.932760609333393
      ],
      [
        "специально",
        -8.937665482138925
      ],
      [
        "взаимодейств",
        -8.939327773595302
      ],
      [
        "игор",
        -8.94007029653192
      ],
      [
        "отмечает",
        -8.940585814710587
      ],
      [
        "x",
        -8.941326766253429
      ],
      [
        "восточно",
        -8.942095125866924
      ],
      [
        "цело",
        -8.94225874386074
      ],
      [
        "оборот",
        -8.942271080643593
      ],
      [
        "экономик",
        -8.942972566694932
      ],
      [
        "нэнерго",
        -8.944207413402061
      ],
      [
        "объявлени",
        -8.945464694202938
      ],
      [
        "звание",
        -8.945872273714377
      ],
      [
        "доказательств",
        -8.947473800182427
      ],
      [
        "инициатив",
        -8.947473800212816
      ],
      [
        "кабинет",
        -8.94747394085014
      ],
      [
        "потребительско",
        -8.947474301548398
      ],
      [
        "джордж",
        -8.94747490708179
      ],
      [
        "аммиакопровод",
        -8.94747501593432
      ],
      [
        "надзор",
        -8.94747952783219
      ],
      [
        "контакт",
        -8.947490245425492
      ],
      [
        "мер",
        -8.947549060533909
      ],
      [
        "процент",
        -8.947695038756901
      ],
      [
        "последстви",
        -8.947806275399422
      ],
      [
        "поврежден",
        -8.947850666509709
      ],
      [
        "резиденци",
        -8.947918658458601
      ],
      [
        "призвал",
        -8.948135723028674
      ],
      [
        "образом",
        -8.948521808331924
      ],
      [
        "основе",
        -8.948940070638155
      ],
      [
        "уют",
        -8.949124689233594
      ],
      [
        "посещ",
        -8.94944810730324
      ],
      [
        "спец",
        -8.949736240705448
      ],
      [
        "jo",
        -8.950651052459923
      ],
      [
        "пока",
        -8.951008829461454
      ],
      [
        "сведения",
        -8.951704429433203
      ],
      [
        "родово",
        -8.95182725821535
      ],
      [
        "одесс",
        -8.95251516304908
      ],
      [
        "поздне",
        -8.953046295401922
      ],
      [
        "ставк",
        -8.953937881839792
      ],
      [
        "газеты",
        -8.95468280391962
      ],
      [
        "доме",
        -8.95549812954254
      ],
      [
        "значени",
        -8.955706457277149
      ],
      [
        "шаг",
        -8.957306912485187
      ],
      [
        "москв",
        -8.957832276358168
      ],
      [
        "th",
        -8.958567958087269
      ],
      [
        "занима",
        -8.959152098130973
      ],
      [
        "состоит",
        -8.95919030182818
      ],
      [
        "мл",
        -8.959960561651986
      ],
      [
        "границу",
        -8.9604551674297
      ],
      [
        "реагирова",
        -8.961975367036217
      ],
      [
        "альянса",
        -8.962708539809586
      ],
      [
        "нако",
        -8.963145811158402
      ],
      [
        "medi",
        -8.963832998097569
      ],
      [
        "округ",
        -8.963834164911994
      ],
      [
        "поддерживае",
        -8.96474325226608
      ],
      [
        "завершени",
        -8.96526291778702
      ],
      [
        "называл",
        -8.965472885912416
      ],
      [
        "уровне",
        -8.965497295790334
      ],
      [
        "тр",
        -8.965671132017516
      ],
      [
        "помощник",
        -8.966912373234464
      ],
      [
        "этим",
        -8.967410379643995
      ],
      [
        "тельно",
        -8.967999776642934
      ],
      [
        "песн",
        -8.968049912125739
      ],
      [
        "судов",
        -8.970258264651148
      ],
      [
        "зеленск",
        -8.971907611990346
      ],
      [
        "наркотик",
        -8.976478541050811
      ],
      [
        "выбор",
        -8.978951934860895
      ],
      [
        "июн",
        -8.98020677602535
      ],
      [
        "выход",
        -8.98248076422243
      ],
      [
        "правительстве",
        -8.983006217639252
      ],
      [
        "западны",
        -8.9830752141802
      ],
      [
        "аристократ",
        -8.984088718031732
      ],
      [
        "га",
        -8.984321951483
      ],
      [
        "координиру",
        -8.985205991290382
      ],
      [
        "утверждает",
        -8.985946644203768
      ],
      [
        "открыти",
        -8.987788346692504
      ],
      [
        "имени",
        -8.988732361336686
      ],
      [
        "зате",
        -8.989664641944046
      ],
      [
        "атак",
        -8.991328214786298
      ],
      [
        "министра",
        -8.992519940431979
      ],
      [
        "возглавляе",
        -8.996404235491227
      ],
      [
        "це",
        -8.99908895563429
      ],
      [
        "экономически",
        -9.001302011279664
      ],
      [
        "жела",
        -9.00131240815584
      ],
      [
        "волн",
        -9.001808146988848
      ],
      [
        "наш",
        -9.00201195861508
      ],
      [
        "войска",
        -9.002229835918165
      ],
      [
        "украинск",
        -9.002302408238844
      ],
      [
        "напря",
        -9.004378382269833
      ],
      [
        "цел",
        -9.005678137166477
      ],
      [
        "казал",
        -9.005700303122788
      ],
      [
        "отдел",
        -9.005721840192091
      ],
      [
        "другим",
        -9.005885920231655
      ],
      [
        "вос",
        -9.005960631059548
      ],
      [
        "наследник",
        -9.006161880698926
      ],
      [
        "страна",
        -9.006880063073776
      ],
      [
        "место",
        -9.00732006084985
      ],
      [
        "главно",
        -9.007865000586415
      ],
      [
        "угроз",
        -9.00838531118327
      ],
      [
        "пресс",
        -9.008818914745962
      ],
      [
        "рд",
        -9.009684498457055
      ],
      [
        "чем",
        -9.010302936514307
      ],
      [
        "генеральны",
        -9.011225788361552
      ],
      [
        "гер",
        -9.011915618105451
      ],
      [
        "кон",
        -9.013696124388574
      ],
      [
        "st",
        -9.01457345782693
      ],
      [
        "критиковал",
        -9.016614256729492
      ],
      [
        "певиц",
        -9.01832470712663
      ],
      [
        "предприяти",
        -9.019007731386962
      ],
      [
        "име",
        -9.01929358061478
      ],
      [
        "дал",
        -9.021699735495543
      ],
      [
        "кр",
        -9.02236458043506
      ],
      [
        "фильм",
        -9.022728022874489
      ],
      [
        "сообщает",
        -9.023887050282276
      ],
      [
        "вен",
        -9.024585153790108
      ],
      [
        "нор",
        -9.024986253661885
      ],
      [
        "поколени",
        -9.025076399990686
      ],
      [
        "том",
        -9.027124489250273
      ],
      [
        "или",
        -9.02769909691285
      ],
      [
        "артистк",
        -9.02823118775636
      ],
      [
        "артист",
        -9.034483964778069
      ],
      [
        "сама",
        -9.039851210777972
      ],
      [
        "сер",
        -9.043395940187631
      ],
      [
        "норм",
        -9.045228968658543
      ],
      [
        "баланс",
        -9.045572001196398
      ],
      [
        "платформ",
        -9.045694829194185
      ],
      [
        "общества",
        -9.04621423953355
      ],
      [
        "вать",
        -9.046427579228611
      ],
      [
        "палестин",
        -9.046496620185884
      ],
      [
        "бенджамин",
        -9.047473803897898
      ],
      [
        "превратил",
        -9.047473868816924
      ],
      [
        "трагеди",
        -9.04747390846659
      ],
      [
        "феврал",
        -9.047475229146489
      ],
      [
        "особняк",
        -9.047476270943534
      ],
      [
        "терроризм",
        -9.047490126941833
      ],
      [
        "look",
        -9.047534215912918
      ],
      [
        "эксофицер",
        -9.04755318680107
      ],
      [
        "невест",
        -9.047598026186629
      ],
      [
        "начальник",
        -9.047653990056286
      ],
      [
        "фотографи",
        -9.047728187092572
      ],
      [
        "покушени",
        -9.04777772733566
      ],
      [
        "египет",
        -9.047778029208237
      ],
      [
        "недавн",
        -9.047805828018172
      ],
      [
        "принял",
        -9.047894365006012
      ],
      [
        "приводит",
        -9.04802374596414
      ],
      [
        "исполнитель",
        -9.048422831258314
      ],
      [
        "совершенно",
        -9.048462824379904
      ],
      [
        "конкурс",
        -9.04856895381014
      ],
      [
        "преми",
        -9.049361016474723
      ],
      [
        "выполняют",
        -9.049404243355276
      ],
      [
        "заявления",
        -9.050107796390344
      ],
      [
        "развод",
        -9.050172475948004
      ],
      [
        "сэр",
        -9.052109012881772
      ],
      [
        "ках",
        -9.05462809615989
      ],
      [
        "утверждения",
        -9.05490151284383
      ],
      [
        "быстро",
        -9.055143007212124
      ],
      [
        "комитета",
        -9.055720426544903
      ],
      [
        "актриса",
        -9.057173689963577
      ],
      [
        "смешн",
        -9.057926346683754
      ],
      [
        "возраст",
        -9.05794707549889
      ],
      [
        "часов",
        -9.057966675792002
      ],
      [
        "азербайджана",
        -9.058185313408265
      ],
      [
        "считают",
        -9.059439169843408
      ],
      [
        "конце",
        -9.06029133332327
      ],
      [
        "вайте",
        -9.061058217508675
      ],
      [
        "контрол",
        -9.061583063853933
      ],
      [
        "нарушения",
        -9.062987444633308
      ],
      [
        "деятельность",
        -9.065553712111154
      ],
      [
        "фон",
        -9.068556863444757
      ],
      [
        "пар",
        -9.068793080352211
      ],
      [
        "объект",
        -9.071250409994652
      ],
      [
        "поколения",
        -9.071651188089746
      ],
      [
        "отсутстви",
        -9.071693602945906
      ],
      [
        "дон",
        -9.07357069516246
      ],
      [
        "кредитны",
        -9.075929839415188
      ],
      [
        "ор",
        -9.076363204486412
      ],
      [
        "ющие",
        -9.076533235971358
      ],
      [
        "предприятия",
        -9.076774510374456
      ],
      [
        "начали",
        -9.077524853718028
      ],
      [
        "сделал",
        -9.077823184116886
      ],
      [
        "операторо",
        -9.079162567145076
      ],
      [
        "издания",
        -9.080736991679188
      ],
      [
        "in",
        -9.08142573939431
      ],
      [
        "северны",
        -9.08149581139542
      ],
      [
        "ицей",
        -9.082980509061477
      ],
      [
        "нны",
        -9.083406293022945
      ],
      [
        "лор",
        -9.083409734775469
      ],
      [
        "юри",
        -9.08457446363848
      ],
      [
        "обычно",
        -9.085044629342809
      ],
      [
        "решени",
        -9.085928668514526
      ],
      [
        "точно",
        -9.0879539705136
      ],
      [
        "обеспечива",
        -9.089013029632728
      ],
      [
        "начина",
        -9.089634172353028
      ],
      [
        "ников",
        -9.089698915212848
      ],
      [
        "объясни",
        -9.091263838585656
      ],
      [
        "юридически",
        -9.091889384445048
      ],
      [
        "аппарата",
        -9.092238354171874
      ],
      [
        "структур",
        -9.093482949818492
      ],
      [
        "скоре",
        -9.094352222697031
      ],
      [
        "может",
        -9.095605894376265
      ],
      [
        "запрещенн",
        -9.096504826887708
      ],
      [
        "иван",
        -9.098692344293775
      ],
      [
        "пить",
        -9.09961464553905
      ],
      [
        "чески",
        -9.100105670490514
      ],
      [
        "врач",
        -9.10123816291654
      ],
      [
        "лент",
        -9.103511678407491
      ],
      [
        "de",
        -9.104689012076028
      ],
      [
        "анти",
        -9.107844768493871
      ],
      [
        "столице",
        -9.10892543206332
      ],
      [
        "суда",
        -9.109909349942589
      ],
      [
        "сын",
        -9.111977250345252
      ],
      [
        "всем",
        -9.11207041275772
      ],
      [
        "пилот",
        -9.113226992332043
      ],
      [
        "утверждал",
        -9.114259996132288
      ],
      [
        "очк",
        -9.115238310490358
      ],
      [
        "telegramканал",
        -9.117565974156946
      ],
      [
        "основно",
        -9.117776981370278
      ],
      [
        "штата",
        -9.118137177431748
      ],
      [
        "появил",
        -9.119586497864034
      ],
      [
        "газо",
        -9.120029096407956
      ],
      [
        "местны",
        -9.120074090699168
      ],
      [
        "ень",
        -9.122645688797684
      ],
      [
        "прос",
        -9.122847746096074
      ],
      [
        "ня",
        -9.126321248540968
      ],
      [
        "просил",
        -9.12639233483563
      ],
      [
        "бе",
        -9.12692678081632
      ],
      [
        "хоч",
        -9.127825956274556
      ],
      [
        "санктпетербург",
        -9.129066176786653
      ],
      [
        "пытал",
        -9.133646522043096
      ],
      [
        "поставк",
        -9.1347803030134
      ],
      [
        "чны",
        -9.136258057924197
      ],
      [
        "стр",
        -9.13637656918991
      ],
      [
        "мужчина",
        -9.138408527123016
      ],
      [
        "освободит",
        -9.141660633702564
      ],
      [
        "ap",
        -9.142518603629837
      ],
      [
        "вид",
        -9.142848263983891
      ],
      [
        "тре",
        -9.143578901109318
      ],
      [
        "нарушени",
        -9.143828672303547
      ],
      [
        "как",
        -9.144099874683452
      ],
      [
        "nes",
        -9.14425382118802
      ],
      [
        "игра",
        -9.144379532302732
      ],
      [
        "соблюда",
        -9.150072254313152
      ],
      [
        "дут",
        -9.150463270971102
      ],
      [
        "тем",
        -9.15211478709357
      ],
      [
        "сант",
        -9.152179641576597
      ],
      [
        "люде",
        -9.152405296366894
      ],
      [
        "концерт",
        -9.152937214766627
      ],
      [
        "ог",
        -9.15433174669746
      ],
      [
        "ски",
        -9.155850731055066
      ],
      [
        "ному",
        -9.15853305265894
      ],
      [
        "функци",
        -9.158574351053216
      ],
      [
        "инвестици",
        -9.158578416686924
      ],
      [
        "global",
        -9.158584911276506
      ],
      [
        "взгляд",
        -9.158584911603771
      ],
      [
        "совещани",
        -9.158585221591734
      ],
      [
        "сооружени",
        -9.158585264729693
      ],
      [
        "логистическ",
        -9.158585904062807
      ],
      [
        "декабр",
        -9.158586627722949
      ],
      [
        "провайдер",
        -9.158589144446282
      ],
      [
        "казахстан",
        -9.15858941328326
      ],
      [
        "политологи",
        -9.158596589135207
      ],
      [
        "нефтяны",
        -9.158618431532616
      ],
      [
        "антифродплатформ",
        -9.158636217592631
      ],
      [
        "повышени",
        -9.158641343356903
      ],
      [
        "альбом",
        -9.158795512302222
      ],
      [
        "стубб",
        -9.158796408344903
      ],
      [
        "pr",
        -9.15881226245624
      ],
      [
        "основал",
        -9.158817335996805
      ],
      [
        "кандидатур",
        -9.158838737276367
      ],
      [
        "спецслужб",
        -9.158904655107955
      ],
      [
        "ment",
        -9.1589419023853
      ],
      [
        "украинывсу",
        -9.158971301788965
      ],
      [
        "похож",
        -9.159026406045347
      ],
      [
        "пришлось",
        -9.159228565620316
      ],
      [
        "отрасл",
        -9.15923238221501
      ],
      [
        "цкий",
        -9.159239597058498
      ],
      [
        "павлин",
        -9.159304337973568
      ],
      [
        "выпустил",
        -9.159503666310377
      ],
      [
        "выпуск",
        -9.159777141686543
      ],
      [
        "руководитель",
        -9.160049125212694
      ],
      [
        "дронами",
        -9.160074958093556
      ],
      [
        "поселк",
        -9.160427771698709
      ],
      [
        "офис",
        -9.160699510534108
      ],
      [
        "название",
        -9.16080526657368
      ],
      [
        "комплекс",
        -9.160864716820742
      ],
      [
        "применени",
        -9.161236115811768
      ],
      [
        "объявлен",
        -9.1613456344113
      ],
      [
        "встреча",
        -9.161522209044485
      ],
      [
        "правильн",
        -9.161576287846064
      ],
      [
        "букв",
        -9.161721800382296
      ],
      [
        "публикаци",
        -9.16179430391198
      ],
      [
        "близ",
        -9.162299727347508
      ],
      [
        "порядк",
        -9.162426237339105
      ],
      [
        "продолжил",
        -9.162590341161671
      ],
      [
        "напомнил",
        -9.16295047813198
      ],
      [
        "передач",
        -9.16348272523807
      ],
      [
        "исполнени",
        -9.163614346562657
      ],
      [
        "купи",
        -9.16487010328653
      ],
      [
        "опубликовал",
        -9.16557825466229
      ],
      [
        "вс",
        -9.166154873002506
      ],
      [
        "дан",
        -9.166848840280554
      ],
      [
        "устроить",
        -9.1673230316834
      ],
      [
        "дс",
        -9.167400817101688
      ],
      [
        "состояни",
        -9.16741190007618
      ],
      [
        "связанны",
        -9.168003903081155
      ],
      [
        "заявление",
        -9.169194271297636
      ],
      [
        "анкар",
        -9.169656601475406
      ],
      [
        "мэр",
        -9.170056332483316
      ],
      [
        "учения",
        -9.170504721538745
      ],
      [
        "второ",
        -9.171689635044736
      ],
      [
        "бизнеса",
        -9.172108472557968
      ],
      [
        "перечень",
        -9.172679422420975
      ],
      [
        "особенно",
        -9.172798610054
      ],
      [
        "стратеги",
        -9.17295059126355
      ],
      [
        "остров",
        -9.173501179646498
      ],
      [
        "отмеча",
        -9.174087076836392
      ],
      [
        "практик",
        -9.174417521859604
      ],
      [
        "елена",
        -9.174753799669634
      ],
      [
        "британск",
        -9.175276222492723
      ],
      [
        "el",
        -9.175454394899193
      ],
      [
        "источник",
        -9.17591825097523
      ],
      [
        "роди",
        -9.176601855328384
      ],
      [
        "которым",
        -9.1775075743131
      ],
      [
        "одном",
        -9.177530083901836
      ],
      [
        "допусти",
        -9.178095773586078
      ],
      [
        "использование",
        -9.178696638436236
      ],
      [
        "азы",
        -9.178810828043448
      ],
      [
        "оружие",
        -9.179058526199114
      ],
      [
        "сервиса",
        -9.180246523322223
      ],
      [
        "постоянно",
        -9.180352042663124
      ],
      [
        "лидера",
        -9.180471928906666
      ],
      [
        "чет",
        -9.181595246912728
      ],
      [
        "анализ",
        -9.182067775222304
      ],
      [
        "ческо",
        -9.183278523674788
      ],
      [
        "справк",
        -9.183355585660994
      ],
      [
        "агент",
        -9.183906191866797
      ],
      [
        "легко",
        -9.185536458391798
      ],
      [
        "возможност",
        -9.186547363333029
      ],
      [
        "планирует",
        -9.187558167822674
      ],
      [
        "ско",
        -9.190272011881389
      ],
      [
        "силы",
        -9.190353391849513
      ],
      [
        "am",
        -9.191047937641349
      ],
      [
        "международным",
        -9.19184505679943
      ],
      [
        "r",
        -9.191857471341937
      ],
      [
        "центра",
        -9.194188382195584
      ],
      [
        "артиста",
        -9.195661114233776
      ],
      [
        "али",
        -9.195668743438691
      ],
      [
        "много",
        -9.197920637807238
      ],
      [
        "сфер",
        -9.19996535756348
      ],
      [
        "представителе",
        -9.199994591085328
      ],
      [
        "палестински",
        -9.200429306338412
      ],
      [
        "ес",
        -9.204218546035426
      ],
      [
        "шест",
        -9.204449539370778
      ],
      [
        "аналитик",
        -9.204624006698335
      ],
      [
        "ца",
        -9.20466811054217
      ],
      [
        "поведени",
        -9.204734681897351
      ],
      [
        "сообщал",
        -9.20491253135836
      ],
      [
        "проводит",
        -9.206588731426123
      ],
      [
        "ing",
        -9.206808569934688
      ],
      [
        "риск",
        -9.20916571026872
      ],
      [
        "фт",
        -9.210295937400057
      ],
      [
        "стинг",
        -9.210593299944904
      ],
      [
        "im",
        -9.210756747703876
      ],
      [
        "секретар",
        -9.212421448138135
      ],
      [
        "международн",
        -9.212580648882858
      ],
      [
        "никак",
        -9.212966476669395
      ],
      [
        "обвиня",
        -9.213578831512088
      ],
      [
        "chr",
        -9.2140006951544
      ],
      [
        "косовски",
        -9.214619882843689
      ],
      [
        "дер",
        -9.215685949336846
      ],
      [
        "должно",
        -9.215753884893898
      ],
      [
        "встрече",
        -9.216329376631665
      ],
      [
        "онлайн",
        -9.217532668694185
      ],
      [
        "активност",
        -9.2187614616468
      ],
      [
        "правов",
        -9.21886518435194
      ],
      [
        "продолжает",
        -9.220016158851225
      ],
      [
        "друга",
        -9.220136823610371
      ],
      [
        "сигнал",
        -9.221720878124652
      ],
      [
        "основн",
        -9.221870301230352
      ],
      [
        "фл",
        -9.222559998102534
      ],
      [
        "уголовно",
        -9.222775617667237
      ],
      [
        "депутат",
        -9.22338223542052
      ],
      [
        "техас",
        -9.22369788212079
      ],
      [
        "освобождени",
        -9.223776562968323
      ],
      [
        "рыно",
        -9.22589836283118
      ],
      [
        "mi",
        -9.22822607594332
      ],
      [
        "сад",
        -9.228230235546002
      ],
      [
        "вер",
        -9.232328650425858
      ],
      [
        "хоче",
        -9.233978905744197
      ],
      [
        "сербо",
        -9.234260839571398
      ],
      [
        "автомобил",
        -9.238103755131574
      ],
      [
        "лини",
        -9.23936247764835
      ],
      [
        "соцсетя",
        -9.244021790212956
      ],
      [
        "зе",
        -9.245478358014257
      ],
      [
        "ут",
        -9.24659962702258
      ],
      [
        "говори",
        -9.249843261212485
      ],
      [
        "сто",
        -9.250140879569772
      ],
      [
        "европейско",
        -9.250613841149384
      ],
      [
        "ian",
        -9.250622271905996
      ],
      [
        "центральн",
        -9.250870765267196
      ],
      [
        "ша",
        -9.255347318817712
      ],
      [
        "камер",
        -9.256575625895824
      ],
      [
        "спорт",
        -9.25859681651788
      ],
      [
        "бермудско",
        -9.2599735613383
      ],
      [
        "важн",
        -9.260580021885184
      ],
      [
        "построи",
        -9.26087133430239
      ],
      [
        "ление",
        -9.261458868041217
      ],
      [
        "федеральны",
        -9.262347808944307
      ],
      [
        "акци",
        -9.263095210161078
      ],
      [
        "вес",
        -9.26322930945604
      ],
      [
        "автор",
        -9.267348529233168
      ],
      [
        "сих",
        -9.270882647651844
      ],
      [
        "le",
        -9.272080368844527
      ],
      [
        "китае",
        -9.273715751632713
      ],
      [
        "боевы",
        -9.27474395480796
      ],
      [
        "получ",
        -9.275351638710088
      ],
      [
        "доллар",
        -9.277714977718052
      ],
      [
        "регион",
        -9.281783758933116
      ],
      [
        "фр",
        -9.281882997616815
      ],
      [
        "ази",
        -9.283068433103288
      ],
      [
        "3",
        -9.283584911279176
      ],
      [
        "нетаньяху",
        -9.283584911513527
      ],
      [
        "биньямин",
        -9.28358491353686
      ],
      [
        "america",
        -9.283584919089243
      ],
      [
        "рекомендаци",
        -9.283584943069672
      ],
      [
        "разговарива",
        -9.283585025447447
      ],
      [
        "таблоид",
        -9.28358507622557
      ],
      [
        "пояснил",
        -9.283585261162363
      ],
      [
        "процесс",
        -9.283586441804935
      ],
      [
        "джаспер",
        -9.28358673902552
      ],
      [
        "статистик",
        -9.283586770002728
      ],
      [
        "количеств",
        -9.283586820059863
      ],
      [
        "ассоци",
        -9.28358974675566
      ],
      [
        "свадьб",
        -9.283592352699127
      ],
      [
        "тетушк",
        -9.28359483453935
      ],
      [
        "дьюк",
        -9.283616069892023
      ],
      [
        "волхов",
        -9.283621977376182
      ],
      [
        "музыкант",
        -9.283623199214633
      ],
      [
        "отслежива",
        -9.283679907411663
      ],
      [
        "давление",
        -9.283680232394952
      ],
      [
        "оптимиз",
        -9.283702483675327
      ],
      [
        "пресссекретар",
        -9.283713465460178
      ],
      [
        "of",
        -9.283736314127474
      ],
      [
        "оценива",
        -9.283777683352271
      ],
      [
        "поклад",
        -9.283784570081574
      ],
      [
        "организатор",
        -9.283873059672796
      ],
      [
        "зафиксировали",
        -9.283880675571943
      ],
      [
        "мечта",
        -9.283938214196157
      ],
      [
        "фирм",
        -9.283984588845016
      ],
      [
        "минобороны",
        -9.28422148596472
      ],
      [
        "отставк",
        -9.284292406841498
      ],
      [
        "построен",
        -9.28446536499455
      ],
      [
        "восток",
        -9.284626020008757
      ],
      [
        "саммит",
        -9.284700153506527
      ],
      [
        "читайте",
        -9.284784181060497
      ],
      [
        "внутри",
        -9.284854208033767
      ],
      [
        "прибыл",
        -9.285417358027418
      ],
      [
        "фрг",
        -9.28551759320572
      ],
      [
        "средств",
        -9.28583310965988
      ],
      [
        "сообщило",
        -9.28588627870446
      ],
      [
        "комнат",
        -9.285894367588655
      ],
      [
        "кибермошенничес",
        -9.286380169895772
      ],
      [
        "минут",
        -9.28651364798681
      ],
      [
        "участие",
        -9.2869651376675
      ],
      [
        "принят",
        -9.28720480599605
      ],
      [
        "ведущий",
        -9.288524667670792
      ],
      [
        "некоторых",
        -9.288906654768224
      ],
      [
        "альчик",
        -9.28985218617512
      ],
      [
        "церк",
        -9.289857889682075
      ],
      [
        "актер",
        -9.289898223443938
      ],
      [
        "фрид",
        -9.290130344681703
      ],
      [
        "ывать",
        -9.290661259530244
      ],
      [
        "поддержал",
        -9.290775110473016
      ],
      [
        "уровня",
        -9.291205267076924
      ],
      [
        "техник",
        -9.291352747214884
      ],
      [
        "попал",
        -9.291728365952048
      ],
      [
        "ше",
        -9.292574845125966
      ],
      [
        "прошл",
        -9.292639709627808
      ],
      [
        "маркировк",
        -9.292954912411098
      ],
      [
        "ночь",
        -9.294324406304886
      ],
      [
        "нападения",
        -9.294440391970417
      ],
      [
        "газопроводов",
        -9.294510829655986
      ],
      [
        "реальны",
        -9.294852818452767
      ],
      [
        "британски",
        -9.295726642587567
      ],
      [
        "отказать",
        -9.296133682826694
      ],
      [
        "изированны",
        -9.296553520302716
      ],
      [
        "будет",
        -9.296572778645178
      ],
      [
        "ребенк",
        -9.298315788949909
      ],
      [
        "официально",
        -9.298330379207416
      ],
      [
        "ведомство",
        -9.29961056638984
      ],
      [
        "образовани",
        -9.29992639053894
      ],
      [
        "поставкам",
        -9.300519656924315
      ],
      [
        "откры",
        -9.301170389940564
      ],
      [
        "внутренн",
        -9.30175248449055
      ],
      [
        "валют",
        -9.30226280906344
      ],
      [
        "кую",
        -9.30243157179663
      ],
      [
        "нефт",
        -9.303209135433434
      ],
      [
        "колени",
        -9.304098369032175
      ],
      [
        "аммиак",
        -9.3042910814353
      ],
      [
        "мемы",
        -9.304484091409028
      ],
      [
        "пре",
        -9.304931917956193
      ],
      [
        "ров",
        -9.306401173251052
      ],
      [
        "аться",
        -9.30653629209939
      ],
      [
        "расширени",
        -9.308753857531896
      ],
      [
        "могли",
        -9.309299553852457
      ],
      [
        "куб",
        -9.309742977139
      ],
      [
        "скоро",
        -9.310769887535512
      ],
      [
        "соответствующ",
        -9.31082380047572
      ],
      [
        "дональдом",
        -9.311605433181542
      ],
      [
        "импорт",
        -9.311758779605862
      ],
      [
        "актив",
        -9.313512829106564
      ],
      [
        "дрон",
        -9.31445896372914
      ],
      [
        "две",
        -9.314815986894066
      ],
      [
        "био",
        -9.316753288972956
      ],
      [
        "цб",
        -9.316911138593488
      ],
      [
        "ess",
        -9.317220666791798
      ],
      [
        "едине",
        -9.31799884997802
      ],
      [
        "рожденны",
        -9.319608223069094
      ],
      [
        "земл",
        -9.319668547381076
      ],
      [
        "без",
        -9.32094882964352
      ],
      [
        "события",
        -9.321870737091078
      ],
      [
        "условия",
        -9.322473300587772
      ],
      [
        "дорог",
        -9.32343088774634
      ],
      [
        "отмети",
        -9.323515377342389
      ],
      [
        "су",
        -9.323551307453638
      ],
      [
        "направлен",
        -9.323556743082706
      ],
      [
        "контроль",
        -9.324605609632778
      ],
      [
        "мог",
        -9.326558502867885
      ],
      [
        "долг",
        -9.32720190908193
      ],
      [
        "мере",
        -9.327482390119965
      ],
      [
        "государственн",
        -9.330286403723049
      ],
      [
        "обще",
        -9.330535165500269
      ],
      [
        "счита",
        -9.330871462411237
      ],
      [
        "чи",
        -9.331634137193909
      ],
      [
        "предполагаемы",
        -9.333747271165215
      ],
      [
        "пыта",
        -9.335070684461789
      ],
      [
        "роста",
        -9.336618924335994
      ],
      [
        "доход",
        -9.33686456505757
      ],
      [
        "пункта",
        -9.337385275487266
      ],
      [
        "автомат",
        -9.337454229021052
      ],
      [
        "gi",
        -9.338617180090118
      ],
      [
        "боро",
        -9.339025341905431
      ],
      [
        "срока",
        -9.340173446537117
      ],
      [
        "поставля",
        -9.343354651969968
      ],
      [
        "уже",
        -9.343706230501205
      ],
      [
        "разведывательны",
        -9.344374761558964
      ],
      [
        "введен",
        -9.34491949145692
      ],
      [
        "коммер",
        -9.345307092567406
      ],
      [
        "информационн",
        -9.346393795489806
      ],
      [
        "напр",
        -9.347979697876388
      ],
      [
        "етров",
        -9.350929661182509
      ],
      [
        "обе",
        -9.35254247449618
      ],
      [
        "самом",
        -9.352719572254054
      ],
      [
        "спользовать",
        -9.353966903194742
      ],
      [
        "вели",
        -9.354423643522628
      ],
      [
        "труб",
        -9.354735027335911
      ],
      [
        "опубликован",
        -9.35580405095086
      ],
      [
        "пункто",
        -9.355870819490198
      ],
      [
        "заключенным",
        -9.356472088598109
      ],
      [
        "ила",
        -9.356778553952608
      ],
      [
        "сами",
        -9.356975679155475
      ],
      [
        "смотр",
        -9.357173527791735
      ],
      [
        "ваться",
        -9.357722584700593
      ],
      [
        "ивать",
        -9.3586243473525
      ],
      [
        "сервис",
        -9.358711186144417
      ],
      [
        "учреждени",
        -9.359759889781476
      ],
      [
        "текст",
        -9.361497004264589
      ],
      [
        "воен",
        -9.361852830605088
      ],
      [
        "сми",
        -9.364044727499609
      ],
      [
        "заместителя",
        -9.364147681124708
      ],
      [
        "пара",
        -9.36536290209246
      ],
      [
        "ведение",
        -9.365911165762435
      ],
      [
        "дале",
        -9.367079319506267
      ],
      [
        "создан",
        -9.36802936169842
      ],
      [
        "нашл",
        -9.368376340953883
      ],
      [
        "молодеж",
        -9.368748193860023
      ],
      [
        "юридическо",
        -9.370332072204246
      ],
      [
        "иде",
        -9.37061150754905
      ],
      [
        "черноморск",
        -9.37520351063034
      ],
      [
        "уверен",
        -9.37532188568671
      ],
      [
        "настояще",
        -9.375386848762687
      ],
      [
        "ia",
        -9.376957229286417
      ],
      [
        "голосов",
        -9.379875486332274
      ],
      [
        "жертв",
        -9.38014038804938
      ],
      [
        "нул",
        -9.380849846969143
      ],
      [
        "mag",
        -9.382493682133498
      ],
      [
        "ева",
        -9.38538615856382
      ],
      [
        "акт",
        -9.385423131293262
      ],
      [
        "ющих",
        -9.386019500046416
      ],
      [
        "her",
        -9.387090162213187
      ],
      [
        "пу",
        -9.38749165307416
      ],
      [
        "электро",
        -9.389751975220715
      ],
      [
        "форм",
        -9.390856529246127
      ],
      [
        "автомобиль",
        -9.391027660659496
      ],
      [
        "цеп",
        -9.39154382341232
      ],
      [
        "администраци",
        -9.39166956219271
      ],
      [
        "выступлени",
        -9.39211062343537
      ],
      [
        "сотруднико",
        -9.39253676596966
      ],
      [
        "движения",
        -9.393652094179435
      ],
      [
        "услови",
        -9.396223753103596
      ],
      [
        "ое",
        -9.39654936366798
      ],
      [
        "h",
        -9.396725976601424
      ],
      [
        "другом",
        -9.399752697322995
      ],
      [
        "виде",
        -9.40063485461632
      ],
      [
        "вицепрезидент",
        -9.400802839596915
      ],
      [
        "опыт",
        -9.402262693800695
      ],
      [
        "ней",
        -9.403908238858785
      ],
      [
        "подход",
        -9.404019351872458
      ],
      [
        "ели",
        -9.404308650158168
      ],
      [
        "оду",
        -9.405059224458183
      ],
      [
        "назначен",
        -9.405553148063197
      ],
      [
        "метр",
        -9.406854121989907
      ],
      [
        "шоу",
        -9.406970162506248
      ],
      [
        "топ",
        -9.407218772881736
      ],
      [
        "оложил",
        -9.407236741508257
      ],
      [
        "завод",
        -9.407276697627726
      ],
      [
        "наук",
        -9.409094157655556
      ],
      [
        "акку",
        -9.40949837584909
      ],
      [
        "представитель",
        -9.40955369403262
      ],
      [
        "газет",
        -9.410015098273904
      ],
      [
        "диверси",
        -9.410092534343
      ],
      [
        "ведет",
        -9.4108996604368
      ],
      [
        "прода",
        -9.41145712255512
      ],
      [
        "lam",
        -9.412063199191328
      ],
      [
        "десятк",
        -9.412946908286717
      ],
      [
        "час",
        -9.413499547755483
      ],
      [
        "прокурор",
        -9.413611613673998
      ],
      [
        "станци",
        -9.414880741883506
      ],
      [
        "намерен",
        -9.416125502492394
      ],
      [
        "бывше",
        -9.417141840535278
      ],
      [
        "сделан",
        -9.41786534208477
      ],
      [
        "состоя",
        -9.420011876177842
      ],
      [
        "ль",
        -9.42025239051807
      ],
      [
        "юридическ",
        -9.420746690278635
      ],
      [
        "деле",
        -9.42287665070124
      ],
      [
        "ажды",
        -9.423790411994144
      ],
      [
        "людя",
        -9.425177932783102
      ],
      [
        "лей",
        -9.425311621414965
      ],
      [
        "тон",
        -9.4254287078716
      ],
      [
        "торгов",
        -9.425898538211143
      ],
      [
        "катастроф",
        -9.426303015153175
      ],
      [
        "эффект",
        -9.426389071881353
      ],
      [
        "уче",
        -9.426435549354826
      ],
      [
        "guard",
        -9.426442067381991
      ],
      [
        "оборудовани",
        -9.426442067960824
      ],
      [
        "заболевани",
        -9.426442134138751
      ],
      [
        "куприянов",
        -9.42644214282143
      ],
      [
        "брифинг",
        -9.42644220898222
      ],
      [
        "трубопровод",
        -9.426442385934504
      ],
      [
        "каникул",
        -9.42644252703906
      ],
      [
        "вглубь",
        -9.426444158682044
      ],
      [
        "компенсаци",
        -9.426445172254834
      ],
      [
        "километр",
        -9.42644929453066
      ],
      [
        "отрица",
        -9.42645298654666
      ],
      [
        "достижени",
        -9.426456932076189
      ],
      [
        "галкин",
        -9.426462320038452
      ],
      [
        "обсудил",
        -9.426499684365934
      ],
      [
        "газификаци",
        -9.426502986369131
      ],
      [
        "требования",
        -9.42657831361568
      ],
      [
        "get",
        -9.426578797353372
      ],
      [
        "прекращени",
        -9.42660932265243
      ],
      [
        "специалист",
        -9.426617265953569
      ],
      [
        "обломк",
        -9.426627686531614
      ],
      [
        "росатом",
        -9.426647440426796
      ],
      [
        "помеша",
        -9.426667573133392
      ],
      [
        "звонил",
        -9.426730348209013
      ],
      [
        "осудил",
        -9.426737680832234
      ],
      [
        "сегодняшн",
        -9.42673918986685
      ],
      [
        "контролирует",
        -9.426769090835624
      ],
      [
        "реактор",
        -9.426788452186956
      ],
      [
        "пекин",
        -9.426836417915844
      ],
      [
        "реестр",
        -9.426866775274098
      ],
      [
        "электростанци",
        -9.426890072125095
      ],
      [
        "телеканал",
        -9.427003404205058
      ],
      [
        "ника",
        -9.427073048344871
      ],
      [
        "любовниц",
        -9.427145969851075
      ],
      [
        "появились",
        -9.427308550834772
      ],
      [
        "причастност",
        -9.427416207138457
      ],
      [
        "франц",
        -9.42755090927093
      ],
      [
        "гостех",
        -9.427648989882664
      ],
      [
        "ft",
        -9.427694124743514
      ],
      [
        "отличие",
        -9.427879513219102
      ],
      [
        "наград",
        -9.42788572975753
      ],
      [
        "сокращени",
        -9.427940505255656
      ],
      [
        "алиевым",
        -9.427972070382074
      ],
      [
        "пересек",
        -9.428071704984308
      ],
      [
        "переход",
        -9.428130182660531
      ],
      [
        "выпущен",
        -9.428295044547657
      ],
      [
        "исключительн",
        -9.428369585503903
      ],
      [
        "плюс",
        -9.428533553604174
      ],
      [
        "ходит",
        -9.428766019096578
      ],
      [
        "теракт",
        -9.428794140551194
      ],
      [
        "действий",
        -9.429021237408612
      ],
      [
        "игрок",
        -9.42966915418412
      ],
      [
        "части",
        -9.429725594238718
      ],
      [
        "черного",
        -9.429829512932969
      ],
      [
        "индекс",
        -9.429964889896658
      ],
      [
        "us",
        -9.43002626760492
      ],
      [
        "сообществ",
        -9.430312612364256
      ],
      [
        "продаж",
        -9.430720037871222
      ],
      [
        "тренд",
        -9.43075115900933
      ],
      [
        "будуще",
        -9.430992735112254
      ],
      [
        "дете",
        -9.431113598846537
      ],
      [
        "приложени",
        -9.431483607653412
      ],
      [
        "син",
        -9.432399235026384
      ],
      [
        "потребност",
        -9.432558143448508
      ],
      [
        "рады",
        -9.432917882159744
      ],
      [
        "медлен",
        -9.433056167740444
      ],
      [
        "долларов",
        -9.433266979789083
      ],
      [
        "кандидат",
        -9.43352599929656
      ],
      [
        "квот",
        -9.433594636992462
      ],
      [
        "здоровь",
        -9.434410105737962
      ],
      [
        "дни",
        -9.434833524940917
      ],
      [
        "регулярно",
        -9.435062479801164
      ],
      [
        "sto",
        -9.43570872790896
      ],
      [
        "места",
        -9.4360085490769
      ],
      [
        "снова",
        -9.436110530906204
      ],
      [
        "инструмент",
        -9.436413878449205
      ],
      [
        "исследования",
        -9.43649161050778
      ],
      [
        "формировани",
        -9.436497503420116
      ],
      [
        "награждени",
        -9.436524993030938
      ],
      [
        "руководителя",
        -9.436576451723804
      ],
      [
        "основател",
        -9.436937333329062
      ],
      [
        "британии",
        -9.437030836534335
      ],
      [
        "младше",
        -9.437110983610127
      ],
      [
        "ожидания",
        -9.437290277266325
      ],
      [
        "участникам",
        -9.437915931276052
      ],
      [
        "временно",
        -9.437972392594196
      ],
      [
        "выступил",
        -9.43798688575776
      ],
      [
        "штатов",
        -9.438166349586506
      ],
      [
        "тех",
        -9.438240379297744
      ],
      [
        "случай",
        -9.438655889860922
      ],
      [
        "оснащен",
        -9.4391737055927
      ],
      [
        "формаци",
        -9.439676681919412
      ],
      [
        "миллениалами",
        -9.441379300641389
      ],
      [
        "палестинское",
        -9.441555399606122
      ],
      [
        "ницу",
        -9.441967532943764
      ],
      [
        "террористическ",
        -9.442499851435723
      ],
      [
        "коммуникаци",
        -9.44322439548318
      ],
      [
        "нанес",
        -9.44328015686391
      ],
      [
        "выс",
        -9.443496936979717
      ],
      [
        "предложен",
        -9.44413996996864
      ],
      [
        "гражданск",
        -9.444376013381694
      ],
      [
        "кович",
        -9.444433700420232
      ],
      [
        "оста",
        -9.444698574991524
      ],
      [
        "поражени",
        -9.44521055760378
      ],
      [
        "представля",
        -9.445987161325966
      ],
      [
        "оценк",
        -9.44598993260694
      ],
      [
        "политическ",
        -9.446782903927945
      ],
      [
        "следствие",
        -9.446911930720908
      ],
      [
        "леон",
        -9.448057580504551
      ],
      [
        "проверк",
        -9.44859056299895
      ],
      [
        "глаза",
        -9.44919920282958
      ],
      [
        "te",
        -9.449408437819809
      ],
      [
        "обсуждени",
        -9.449547658355035
      ],
      [
        "родственник",
        -9.451067161957804
      ],
      [
        "главны",
        -9.451308001385232
      ],
      [
        "паспорт",
        -9.45135866832355
      ],
      [
        "вернуть",
        -9.451579751945076
      ],
      [
        "вооруж",
        -9.452935960123172
      ],
      [
        "предложения",
        -9.453147550539468
      ],
      [
        "главным",
        -9.453801070490371
      ],
      [
        "президентски",
        -9.454239101064092
      ],
      [
        "крушени",
        -9.454635200104168
      ],
      [
        "думал",
        -9.455117789004875
      ],
      [
        "ближне",
        -9.455668189039605
      ],
      [
        "нового",
        -9.456056485687686
      ],
      [
        "om",
        -9.456077901757313
      ],
      [
        "беспилотника",
        -9.45739476434126
      ],
      [
        "могл",
        -9.457537945049635
      ],
      [
        "хороши",
        -9.457633192981652
      ],
      [
        "основным",
        -9.457689776962631
      ],
      [
        "богат",
        -9.458539395292863
      ],
      [
        "ed",
        -9.459498200994018
      ],
      [
        "финансировани",
        -9.45956470673883
      ],
      [
        "подчиня",
        -9.459625838321177
      ],
      [
        "частн",
        -9.461276095535345
      ],
      [
        "политика",
        -9.4614676652146
      ],
      [
        "лен",
        -9.461498468904342
      ],
      [
        "случая",
        -9.46257291999868
      ],
      [
        "плохо",
        -9.46298486270598
      ],
      [
        "фильмо",
        -9.463764900936397
      ],
      [
        "возможны",
        -9.46419402424456
      ],
      [
        "ек",
        -9.46500215562897
      ],
      [
        "полне",
        -9.46515466477431
      ],
      [
        "белгород",
        -9.465489525074876
      ],
      [
        "след",
        -9.466025881570651
      ],
      [
        "ошел",
        -9.466257184085135
      ],
      [
        "ющий",
        -9.46665840051043
      ],
      [
        "город",
        -9.466739062820588
      ],
      [
        "огромны",
        -9.466980107902623
      ],
      [
        "эр",
        -9.468361437698976
      ],
      [
        "сообщила",
        -9.469119856059136
      ],
      [
        "куп",
        -9.46943629857319
      ],
      [
        "сервисо",
        -9.469482802126302
      ],
      [
        "села",
        -9.470006096457077
      ],
      [
        "разработан",
        -9.47065363189191
      ],
      [
        "нин",
        -9.471052083589154
      ],
      [
        "кажет",
        -9.471116783538102
      ],
      [
        "ген",
        -9.471603508709356
      ],
      [
        "онов",
        -9.471969715067326
      ],
      [
        "бр",
        -9.472004355989808
      ],
      [
        "wo",
        -9.472277920432266
      ],
      [
        "ент",
        -9.472613184266711
      ],
      [
        "полу",
        -9.474827406596514
      ],
      [
        "ием",
        -9.475939517727827
      ],
      [
        "плат",
        -9.476718958968556
      ],
      [
        "номера",
        -9.47769903728076
      ],
      [
        "мирны",
        -9.477974365602703
      ],
      [
        "заседания",
        -9.478213767632548
      ],
      [
        "дали",
        -9.478439043229477
      ],
      [
        "вклад",
        -9.480355887037714
      ],
      [
        "политическим",
        -9.48098015459587
      ],
      [
        "москву",
        -9.481068578491954
      ],
      [
        "настоящ",
        -9.481811804563154
      ],
      [
        "шут",
        -9.481998466579943
      ],
      [
        "учени",
        -9.48554748462621
      ],
      [
        "продолжа",
        -9.485729556920226
      ],
      [
        "делегация",
        -9.48583119652313
      ],
      [
        "пал",
        -9.488599024769478
      ],
      [
        "бу",
        -9.488764224008884
      ],
      [
        "пропада",
        -9.489764666079475
      ],
      [
        "сильн",
        -9.490875425208444
      ],
      [
        "оно",
        -9.491021923973424
      ],
      [
        "ид",
        -9.491381754298905
      ],
      [
        "уров",
        -9.49170189073653
      ],
      [
        "буду",
        -9.49427627583374
      ],
      [
        "начать",
        -9.496060687245462
      ],
      [
        "пра",
        -9.49608875499004
      ],
      [
        "ближайши",
        -9.496318049135418
      ],
      [
        "старше",
        -9.497293296153574
      ],
      [
        "представлен",
        -9.497672965950215
      ],
      [
        "ба",
        -9.49832230977267
      ],
      [
        "сербско",
        -9.49903692642505
      ],
      [
        "оба",
        -9.499184285425796
      ],
      [
        "сказа",
        -9.499462985530752
      ],
      [
        "отечественны",
        -9.499578221017728
      ],
      [
        "называет",
        -9.499908062525918
      ],
      [
        "ельс",
        -9.500388445750596
      ],
      [
        "ющую",
        -9.501502201734231
      ],
      [
        "овой",
        -9.501679839795033
      ],
      [
        "достал",
        -9.50397949124
      ],
      [
        "посредни",
        -9.50482860995362
      ],
      [
        "ович",
        -9.504837427862505
      ],
      [
        "газово",
        -9.504884480898085
      ],
      [
        "товаро",
        -9.505089399076033
      ],
      [
        "погод",
        -9.506309828036242
      ],
      [
        "ger",
        -9.50790631043485
      ],
      [
        "мурманско",
        -9.508078545807864
      ],
      [
        "гр",
        -9.510827888071448
      ],
      [
        "си",
        -9.51263598887608
      ],
      [
        "основанн",
        -9.514096035111908
      ],
      [
        "попроси",
        -9.515774136876525
      ],
      [
        "щей",
        -9.515964677937436
      ],
      [
        "sh",
        -9.51630098556386
      ],
      [
        "атом",
        -9.517272726502888
      ],
      [
        "готовит",
        -9.518286055207222
      ],
      [
        "судебны",
        -9.518358384495864
      ],
      [
        "кану",
        -9.520942214441389
      ],
      [
        "высоко",
        -9.521100987986928
      ],
      [
        "мона",
        -9.521259929131382
      ],
      [
        "яженност",
        -9.521321782952947
      ],
      [
        "ван",
        -9.52160911496367
      ],
      [
        "технически",
        -9.521921524401147
      ],
      [
        "телефон",
        -9.522693514160403
      ],
      [
        "страну",
        -9.524579379875757
      ],
      [
        "целе",
        -9.52492001444832
      ],
      [
        "ющим",
        -9.525655883018226
      ],
      [
        "подтвердил",
        -9.52583887695424
      ],
      [
        "популярн",
        -9.528124573527576
      ],
      [
        "p",
        -9.530513972595475
      ],
      [
        "признан",
        -9.531758141792531
      ],
      [
        "брид",
        -9.534026030343073
      ],
      [
        "дает",
        -9.53424488527594
      ],
      [
        "кара",
        -9.535670434114978
      ],
      [
        "сбива",
        -9.537162832849136
      ],
      [
        "ua",
        -9.53791858057826
      ],
      [
        "прост",
        -9.53829777924939
      ],
      [
        "ее",
        -9.538414447303497
      ],
      [
        "эти",
        -9.53911218217323
      ],
      [
        "соблюдени",
        -9.540242565274577
      ],
      [
        "задержан",
        -9.540258896507687
      ],
      [
        "написала",
        -9.54070669299198
      ],
      [
        "интеллект",
        -9.542857328417986
      ],
      [
        "нь",
        -9.54289458138934
      ],
      [
        "призна",
        -9.543530953705575
      ],
      [
        "врод",
        -9.54607318676917
      ],
      [
        "звен",
        -9.546400218664909
      ],
      [
        "чен",
        -9.546481883024008
      ],
      [
        "нец",
        -9.54690906713179
      ],
      [
        "отказ",
        -9.548149376320133
      ],
      [
        "регулировани",
        -9.548696508987476
      ],
      [
        "свой",
        -9.549404118123636
      ],
      [
        "атомн",
        -9.55155563024769
      ],
      [
        "нии",
        -9.55182530478778
      ],
      [
        "даст",
        -9.553589085994698
      ],
      [
        "ма",
        -9.555045218982082
      ],
      [
        "чиновник",
        -9.556943078957705
      ],
      [
        "оказа",
        -9.557677528601404
      ],
      [
        "коллег",
        -9.559580917532088
      ],
      [
        "великобритани",
        -9.559630488923768
      ],
      [
        "кад",
        -9.55964281413345
      ],
      [
        "тить",
        -9.56043338028436
      ],
      [
        "беспилотник",
        -9.560684585618496
      ],
      [
        "обеща",
        -9.561320833526056
      ],
      [
        "ty",
        -9.562457483307576
      ],
      [
        "газманов",
        -9.56287230079091
      ],
      [
        "преступлени",
        -9.56303965284354
      ],
      [
        "анха",
        -9.56424392706234
      ],
      [
        "обоснован",
        -9.56426366100062
      ],
      [
        "сообщения",
        -9.564387097876883
      ],
      [
        "пространстве",
        -9.565266005269162
      ],
      [
        "песне",
        -9.56527545295797
      ],
      [
        "казать",
        -9.565702956967224
      ],
      [
        "белы",
        -9.5661521879975
      ],
      [
        "региональн",
        -9.567224978225148
      ],
      [
        "корреспондент",
        -9.568497264800268
      ],
      [
        "поме",
        -9.5718799641629
      ],
      [
        "ди",
        -9.572104179305263
      ],
      [
        "кн",
        -9.57303735854948
      ],
      [
        "отмен",
        -9.573195003830234
      ],
      [
        "чего",
        -9.573413336594337
      ],
      [
        "силовы",
        -9.573678303447648
      ],
      [
        "оставляет",
        -9.57569072627966
      ],
      [
        "спор",
        -9.576499619883297
      ],
      [
        "бк",
        -9.576537067386592
      ],
      [
        "сенатор",
        -9.576847037745658
      ],
      [
        "финансовы",
        -9.578062371324696
      ],
      [
        "соответствующе",
        -9.578230380506884
      ],
      [
        "ировани",
        -9.57912581280362
      ],
      [
        "ечение",
        -9.57930330954367
      ],
      [
        "мал",
        -9.57937421830597
      ],
      [
        "тюрем",
        -9.579479354833726
      ],
      [
        "марк",
        -9.579805056817662
      ],
      [
        "an",
        -9.580244860271868
      ],
      [
        "едва",
        -9.580293275685934
      ],
      [
        "исполнительно",
        -9.58084952048102
      ],
      [
        "мисси",
        -9.582436967655177
      ],
      [
        "рассказывал",
        -9.582976071114864
      ],
      [
        "чьи",
        -9.583043627365676
      ],
      [
        "сенат",
        -9.583317837152832
      ],
      [
        "блэкаут",
        -9.584434759372876
      ],
      [
        "ском",
        -9.584757435971351
      ],
      [
        "совместны",
        -9.584772344982968
      ],
      [
        "нг",
        -9.588224619353795
      ],
      [
        "зон",
        -9.589937668161918
      ],
      [
        "муниципал",
        -9.590186704547182
      ],
      [
        "lo",
        -9.591093841657434
      ],
      [
        "явление",
        -9.59114543383469
      ],
      [
        "кибермошенни",
        -9.591439145196263
      ],
      [
        "полицейско",
        -9.591933524027588
      ],
      [
        "наряд",
        -9.592298923924629
      ],
      [
        "департамент",
        -9.592830472715482
      ],
      [
        "pa",
        -9.593044377832928
      ],
      [
        "q",
        -9.593108720842944
      ],
      [
        "5",
        -9.593108720842944
      ],
      [
        "7",
        -9.593108720842944
      ],
      [
        "челябинск",
        -9.593108720881258
      ],
      [
        "tiktok",
        -9.593108722121702
      ],
      [
        "лесбиянк",
        -9.59310872310847
      ],
      [
        "соболезнования",
        -9.593108724541429
      ],
      [
        "ньюйорк",
        -9.593108730858155
      ],
      [
        "боксолл",
        -9.593108733368634
      ],
      [
        "канцлер",
        -9.593108740440606
      ],
      [
        "виргини",
        -9.593108787684386
      ],
      [
        "правоохранительн",
        -9.593108800227318
      ],
      [
        "здравоохранени",
        -9.593108816765652
      ],
      [
        "станавлива",
        -9.59310892200638
      ],
      [
        "выгляд",
        -9.593109144490978
      ],
      [
        "шансон",
        -9.593109147615417
      ],
      [
        "понедельник",
        -9.59310940941426
      ],
      [
        "различия",
        -9.59310946918953
      ],
      [
        "меркель",
        -9.593110148450338
      ],
      [
        "разуваев",
        -9.593110580195088
      ],
      [
        "категори",
        -9.593110879551793
      ],
      [
        "феномен",
        -9.593111347019322
      ],
      [
        "бабушки",
        -9.593111537806273
      ],
      [
        "креативн",
        -9.593114110365931
      ],
      [
        "неудач",
        -9.5931225931505
      ],
      [
        "поездк",
        -9.593128850268632
      ],
      [
        "потенциал",
        -9.593147650676514
      ],
      [
        "fox",
        -9.593151470557816
      ],
      [
        "творчеств",
        -9.59316665931312
      ],
      [
        "прадед",
        -9.593176938893842
      ],
      [
        "иноагенто",
        -9.59317818645899
      ],
      [
        "динамик",
        -9.593184791773789
      ],
      [
        "реанимаци",
        -9.593185419654658
      ],
      [
        "пожертвова",
        -9.593194892861549
      ],
      [
        "гнезд",
        -9.59321048825004
      ],
      [
        "футболист",
        -9.593222146518858
      ],
      [
        "ежегодно",
        -9.5932236610347
      ],
      [
        "взрыв",
        -9.59324777333154
      ],
      [
        "идентификаци",
        -9.593250227786992
      ],
      [
        "половин",
        -9.593255720051628
      ],
      [
        "авиакатастроф",
        -9.593272996909173
      ],
      [
        "выдержал",
        -9.593325894403794
      ],
      [
        "вчера",
        -9.593332040811072
      ],
      [
        "бронет",
        -9.59333450117746
      ],
      [
        "анатоли",
        -9.593335413568058
      ],
      [
        "возмутил",
        -9.593336218737488
      ],
      [
        "альбин",
        -9.59340557295562
      ],
      [
        "боливи",
        -9.593507639292564
      ],
      [
        "травм",
        -9.593645448983912
      ],
      [
        "духовн",
        -9.593702168719762
      ],
      [
        "дакот",
        -9.593798886094609
      ],
      [
        "кофе",
        -9.593809892295452
      ],
      [
        "дэвис",
        -9.593920028206222
      ],
      [
        "истребител",
        -9.593997165224582
      ],
      [
        "корпоративны",
        -9.594018030527398
      ],
      [
        "клиент",
        -9.59407593843081
      ],
      [
        "выплат",
        -9.594082833080249
      ],
      [
        "аппарат",
        -9.59432441867298
      ],
      [
        "используют",
        -9.594393954719312
      ],
      [
        "предприниматель",
        -9.594463929785796
      ],
      [
        "медицинских",
        -9.59452335943166
      ],
      [
        "предотвращени",
        -9.594650661261522
      ],
      [
        "управляющи",
        -9.594870753145123
      ],
      [
        "дв",
        -9.59495329367765
      ],
      [
        "бюрократи",
        -9.5956521168132
      ],
      [
        "планировал",
        -9.595752445343102
      ],
      [
        "смерт",
        -9.5958653349842
      ],
      [
        "ключает",
        -9.59587066393231
      ],
      [
        "ангел",
        -9.596137000679697
      ],
      [
        "ратно",
        -9.596253161966976
      ],
      [
        "миллер",
        -9.5963907825365
      ],
      [
        "юмористка",
        -9.596500158127515
      ],
      [
        "раскрыл",
        -9.59660174226438
      ],
      [
        "отключени",
        -9.596621174445827
      ],
      [
        "достаточно",
        -9.596749824291065
      ],
      [
        "существующи",
        -9.597322815992598
      ],
      [
        "пограничник",
        -9.597651228219672
      ],
      [
        "потреблени",
        -9.597669711083926
      ],
      [
        "земель",
        -9.597815291601554
      ],
      [
        "федор",
        -9.597903647310211
      ],
      [
        "властям",
        -9.598551283842534
      ],
      [
        "reat",
        -9.59889934573237
      ],
      [
        "побед",
        -9.599205373961269
      ],
      [
        "размещен",
        -9.59925696468508
      ],
      [
        "пришел",
        -9.59952858778492
      ],
      [
        "англи",
        -9.59974077358241
      ],
      [
        "этнически",
        -9.599849146084804
      ],
      [
        "требует",
        -9.600598344364714
      ],
      [
        "полно",
        -9.600693877561143
      ],
      [
        "шего",
        -9.601116724626957
      ],
      [
        "бал",
        -9.60138184025039
      ],
      [
        "двум",
        -9.601411442067446
      ],
      [
        "визит",
        -9.60160015167556
      ],
      [
        "ств",
        -9.601612216315408
      ],
      [
        "взять",
        -9.601914840300818
      ],
      [
        "сири",
        -9.601979757566252
      ],
      [
        "заня",
        -9.603419395432091
      ],
      [
        "тасс",
        -9.603779554487298
      ],
      [
        "официальны",
        -9.604064924079749
      ],
      [
        "сахара",
        -9.604216064371592
      ],
      [
        "участника",
        -9.604660892514984
      ],
      [
        "муже",
        -9.60523367916261
      ],
      [
        "ждал",
        -9.6060051440012
      ],
      [
        "добры",
        -9.606169291299476
      ],
      [
        "собак",
        -9.606242358523923
      ],
      [
        "сери",
        -9.606451278520618
      ],
      [
        "альны",
        -9.606947258257511
      ],
      [
        "soft",
        -9.607204502704327
      ],
      [
        "етчер",
        -9.6072258991394
      ],
      [
        "снабжени",
        -9.607325961393082
      ],
      [
        "общени",
        -9.607425357325166
      ],
      [
        "владельц",
        -9.607448972392095
      ],
      [
        "преступник",
        -9.607551927473562
      ],
      [
        "ги",
        -9.607577449659368
      ],
      [
        "пункт",
        -9.608266474441304
      ],
      [
        "че",
        -9.608418847579822
      ],
      [
        "канале",
        -9.60926447596141
      ],
      [
        "расставани",
        -9.609592985818042
      ],
      [
        "современно",
        -9.610425611460771
      ],
      [
        "цифров",
        -9.611163897364031
      ],
      [
        "кар",
        -9.611369516373712
      ],
      [
        "вероатлантическо",
        -9.612096756914738
      ],
      [
        "площадк",
        -9.612854673499385
      ],
      [
        "ус",
        -9.613166209007376
      ],
      [
        "логик",
        -9.613297305945304
      ],
      [
        "минэконом",
        -9.613459757721913
      ],
      [
        "полици",
        -9.61353389186408
      ],
      [
        "блока",
        -9.614383326105592
      ],
      [
        "up",
        -9.614594495850191
      ],
      [
        "собственно",
        -9.614911663573771
      ],
      [
        "подка",
        -9.614966060687014
      ],
      [
        "nage",
        -9.615627345393513
      ],
      [
        "конкретн",
        -9.615767132569308
      ],
      [
        "гражданств",
        -9.616028626981814
      ],
      [
        "голосовани",
        -9.616877485159325
      ],
      [
        "предлага",
        -9.617497161502104
      ],
      [
        "великобритании",
        -9.618453079485468
      ],
      [
        "посредническ",
        -9.618770256868215
      ],
      [
        "ница",
        -9.618873336048384
      ],
      [
        "налогов",
        -9.619793872914975
      ],
      [
        "ворон",
        -9.620094475079956
      ],
      [
        "надее",
        -9.620120822642471
      ],
      [
        "никол",
        -9.620202987140363
      ],
      [
        "желт",
        -9.620655820259405
      ],
      [
        "противодействи",
        -9.6217693800028
      ],
      [
        "интересов",
        -9.62190805686178
      ],
      [
        "искусств",
        -9.62225530130998
      ],
      [
        "прям",
        -9.622342255862254
      ],
      [
        "экс",
        -9.622697205261474
      ],
      [
        "дерев",
        -9.62315458186542
      ],
      [
        "внутренни",
        -9.624361873394705
      ],
      [
        "арабск",
        -9.624459284984486
      ],
      [
        "бить",
        -9.62490085244531
      ],
      [
        "услуги",
        -9.62579419043768
      ],
      [
        "снять",
        -9.626221268474456
      ],
      [
        "дить",
        -9.626449133550928
      ],
      [
        "комментатор",
        -9.627424449954685
      ],
      [
        "ча",
        -9.627424521110322
      ],
      [
        "поделил",
        -9.62761620703426
      ],
      [
        "консультиру",
        -9.627703719132306
      ],
      [
        "населенн",
        -9.628146502911932
      ],
      [
        "следующи",
        -9.62817941414613
      ],
      [
        "са",
        -9.628219612689236
      ],
      [
        "событи",
        -9.629503028371168
      ],
      [
        "ald",
        -9.629522707360906
      ],
      [
        "охотн",
        -9.630021764507829
      ],
      [
        "каса",
        -9.630889773831246
      ],
      [
        "газета",
        -9.631584503445284
      ],
      [
        "звезда",
        -9.633335898336536
      ],
      [
        "ако",
        -9.63369153439884
      ],
      [
        "связан",
        -9.635318922124902
      ],
      [
        "представляю",
        -9.635581689744807
      ],
      [
        "киев",
        -9.63600960173051
      ],
      [
        "ra",
        -9.63625086331177
      ],
      [
        "ера",
        -9.63628970856209
      ],
      [
        "направил",
        -9.636492125716329
      ],
      [
        "эй",
        -9.637886826182765
      ],
      [
        "самолето",
        -9.640642153176438
      ],
      [
        "любит",
        -9.64232668574693
      ],
      [
        "писали",
        -9.643073453073026
      ],
      [
        "израильско",
        -9.643733940388104
      ],
      [
        "mar",
        -9.648168407466883
      ],
      [
        "установ",
        -9.648470707559088
      ],
      [
        "прямо",
        -9.648950250768657
      ],
      [
        "усилиям",
        -9.649149609527678
      ],
      [
        "жут",
        -9.649255376480598
      ],
      [
        "зад",
        -9.6503756001588
      ],
      [
        "история",
        -9.65097523651924
      ],
      [
        "следит",
        -9.651281681250254
      ],
      [
        "сделк",
        -9.651352771834649
      ],
      [
        "осуществляет",
        -9.651687912810331
      ],
      [
        "эффективно",
        -9.652342875358343
      ],
      [
        "выступление",
        -9.654642952251791
      ],
      [
        "хозяйство",
        -9.655095799510097
      ],
      [
        "муниципальны",
        -9.655432949863393
      ],
      [
        "уверенност",
        -9.656105120689544
      ],
      [
        "принадлежа",
        -9.65651127134264
      ],
      [
        "партнеро",
        -9.656859416625682
      ],
      [
        "заведующ",
        -9.657178161394873
      ],
      [
        "крупнейши",
        -9.657340050590758
      ],
      [
        "политически",
        -9.657416119221429
      ],
      [
        "стра",
        -9.657767283198496
      ],
      [
        "находя",
        -9.65876552982146
      ],
      [
        "ut",
        -9.659400534437346
      ],
      [
        "ованны",
        -9.659495962331516
      ],
      [
        "зал",
        -9.6605109501335
      ],
      [
        "учет",
        -9.661549265548846
      ],
      [
        "карл",
        -9.6628519694234
      ],
      [
        "маленьки",
        -9.663240739256471
      ],
      [
        "ат",
        -9.66418142294038
      ],
      [
        "газ",
        -9.664233552047495
      ],
      [
        "пуст",
        -9.664414497336276
      ],
      [
        "един",
        -9.66503744400034
      ],
      [
        "сняти",
        -9.666692638440155
      ],
      [
        "идет",
        -9.666755080582352
      ],
      [
        "занял",
        -9.668056345094568
      ],
      [
        "наилучши",
        -9.668342283466274
      ],
      [
        "автомобильн",
        -9.668674415907702
      ],
      [
        "фински",
        -9.670162724758187
      ],
      [
        "колен",
        -9.671931216546431
      ],
      [
        "задержал",
        -9.672743994305929
      ],
      [
        "понимаю",
        -9.67297441487894
      ],
      [
        "енны",
        -9.676002646159295
      ],
      [
        "ну",
        -9.676044027108196
      ],
      [
        "пошл",
        -9.676505546298475
      ],
      [
        "сдела",
        -9.677163314069798
      ],
      [
        "государственно",
        -9.679344426076035
      ],
      [
        "относи",
        -9.679874996861232
      ],
      [
        "рейс",
        -9.680758681437965
      ],
      [
        "жив",
        -9.680798610685056
      ],
      [
        "od",
        -9.682657622641884
      ],
      [
        "федерально",
        -9.682984256624984
      ],
      [
        "семья",
        -9.68446937941122
      ],
      [
        "илли",
        -9.68618766383363
      ],
      [
        "роли",
        -9.687699041646969
      ],
      [
        "специальны",
        -9.687758393202095
      ],
      [
        "этап",
        -9.688417484616888
      ],
      [
        "праздн",
        -9.691842618904785
      ],
      [
        "событие",
        -9.69243140950086
      ],
      [
        "ийско",
        -9.693870304055162
      ],
      [
        "взяла",
        -9.694075870358484
      ],
      [
        "призрак",
        -9.69426191368555
      ],
      [
        "насил",
        -9.694276586634482
      ],
      [
        "участву",
        -9.695793994873348
      ],
      [
        "рассматрива",
        -9.695798108280396
      ],
      [
        "шу",
        -9.696139499212496
      ],
      [
        "част",
        -9.69617921046892
      ],
      [
        "отправил",
        -9.69754266654214
      ],
      [
        "мать",
        -9.698048341449038
      ],
      [
        "строй",
        -9.700649513583476
      ],
      [
        "ближайш",
        -9.7006738945124
      ],
      [
        "средне",
        -9.70099416059228
      ],
      [
        "нуть",
        -9.701177094530522
      ],
      [
        "вело",
        -9.7028504010987
      ],
      [
        "ики",
        -9.703901457835263
      ],
      [
        "кая",
        -9.703974545462255
      ],
      [
        "дол",
        -9.705427012084176
      ],
      [
        "вк",
        -9.70597209413716
      ],
      [
        "труд",
        -9.70615450335389
      ],
      [
        "акан",
        -9.706545663230122
      ],
      [
        "предвыборно",
        -9.706555931233208
      ],
      [
        "ново",
        -9.706701971011013
      ],
      [
        "хвати",
        -9.706717275304786
      ],
      [
        "идан",
        -9.707947593274602
      ],
      [
        "загадо",
        -9.708835448280109
      ],
      [
        "telegramканале",
        -9.709597560189591
      ],
      [
        "окажет",
        -9.710280094138756
      ],
      [
        "снял",
        -9.710362506859456
      ],
      [
        "услуг",
        -9.710902355328052
      ],
      [
        "шел",
        -9.711429751651163
      ],
      [
        "думы",
        -9.711695556609934
      ],
      [
        "росимуществ",
        -9.712939649579669
      ],
      [
        "олег",
        -9.713392006784073
      ],
      [
        "азад",
        -9.714651696346683
      ],
      [
        "меньш",
        -9.716285071953708
      ],
      [
        "фин",
        -9.716353467484389
      ],
      [
        "верх",
        -9.717170803907637
      ],
      [
        "рем",
        -9.717300800346344
      ],
      [
        "вход",
        -9.71972573119007
      ],
      [
        "сфера",
        -9.719960080094868
      ],
      [
        "говоря",
        -9.721312932218083
      ],
      [
        "ическ",
        -9.721687029156993
      ],
      [
        "фла",
        -9.721707439188624
      ],
      [
        "ар",
        -9.722856214850207
      ],
      [
        "упоминает",
        -9.72303350247812
      ],
      [
        "союзник",
        -9.724231905449136
      ],
      [
        "согласовани",
        -9.724436795754372
      ],
      [
        "щ",
        -9.72540392068736
      ],
      [
        "какого",
        -9.72609245609422
      ],
      [
        "май",
        -9.72649725122133
      ],
      [
        "поддерж",
        -9.727020738168152
      ],
      [
        "иться",
        -9.727860237174976
      ],
      [
        "министерство",
        -9.728394928243477
      ],
      [
        "20",
        -9.72855349312141
      ],
      [
        "собственны",
        -9.729603257789368
      ],
      [
        "поче",
        -9.73044360860136
      ],
      [
        "мнения",
        -9.731231390313395
      ],
      [
        "онн",
        -9.731304746229304
      ],
      [
        "век",
        -9.731335163676798
      ],
      [
        "ввод",
        -9.731428585357412
      ],
      [
        "авто",
        -9.73207334612325
      ],
      [
        "подписали",
        -9.732441223139633
      ],
      [
        "ис",
        -9.733409871461095
      ],
      [
        "прессе",
        -9.733534275922912
      ],
      [
        "прич",
        -9.734612318152504
      ],
      [
        "поми",
        -9.735327427589862
      ],
      [
        "сотн",
        -9.735542985178093
      ],
      [
        "роде",
        -9.73560572661437
      ],
      [
        "привлеч",
        -9.735864854703552
      ],
      [
        "ина",
        -9.736002151053578
      ],
      [
        "готово",
        -9.736375066904124
      ],
      [
        "соединенны",
        -9.740026068346658
      ],
      [
        "развива",
        -9.74021385579547
      ],
      [
        "лично",
        -9.742500764187524
      ],
      [
        "рю",
        -9.744198788201077
      ],
      [
        "стро",
        -9.74456579556479
      ],
      [
        "техническ",
        -9.745072284945838
      ],
      [
        "кан",
        -9.745427073735494
      ],
      [
        "избран",
        -9.745783900242133
      ],
      [
        "звезд",
        -9.746177508223369
      ],
      [
        "разреш",
        -9.746331040915242
      ],
      [
        "ключевы",
        -9.74642992944198
      ],
      [
        "ак",
        -9.74717864887372
      ],
      [
        "ежедневн",
        -9.747267158425842
      ],
      [
        "мужчин",
        -9.74809371537804
      ],
      [
        "бывш",
        -9.748895827529156
      ],
      [
        "игруш",
        -9.750848723578567
      ],
      [
        "сша",
        -9.751230922274068
      ],
      [
        "республиканц",
        -9.75280389533733
      ],
      [
        "сохраня",
        -9.754280854712064
      ],
      [
        "долж",
        -9.755184343938025
      ],
      [
        "акционер",
        -9.756718651270978
      ],
      [
        "чащ",
        -9.756909704917906
      ],
      [
        "соз",
        -9.75755931037559
      ],
      [
        "вел",
        -9.757636521987616
      ],
      [
        "буде",
        -9.758150626892892
      ],
      [
        "альянс",
        -9.759287693121474
      ],
      [
        "усилия",
        -9.761067229627196
      ],
      [
        "овали",
        -9.761140439997572
      ],
      [
        "ожида",
        -9.761580870012112
      ],
      [
        "бог",
        -9.762239524836442
      ],
      [
        "ov",
        -9.763021050438129
      ],
      [
        "успел",
        -9.763848676786688
      ],
      [
        "используе",
        -9.76386367512687
      ],
      [
        "силов",
        -9.765979766036123
      ],
      [
        "ер",
        -9.767200484857495
      ],
      [
        "следующе",
        -9.768108694742068
      ],
      [
        "контейнер",
        -9.768446669796123
      ],
      [
        "u",
        -9.768534147324775
      ],
      [
        "запусти",
        -9.768802884400191
      ],
      [
        "подразделени",
        -9.77115333978717
      ],
      [
        "рождени",
        -9.771903205851537
      ],
      [
        "кро",
        -9.772567399513466
      ],
      [
        "ором",
        -9.772702067708442
      ],
      [
        "сторонам",
        -9.773024476093076
      ],
      [
        "иль",
        -9.773503428930209
      ],
      [
        "баз",
        -9.773822476507029
      ],
      [
        "наци",
        -9.775131267836027
      ],
      [
        "миров",
        -9.775328616324623
      ],
      [
        "честно",
        -9.77580606302293
      ],
      [
        "информационно",
        -9.77660584921518
      ],
      [
        "октябр",
        -9.777312903778194
      ],
      [
        "урегулирование",
        -9.777533303739231
      ],
      [
        "жи",
        -9.777858092673494
      ],
      [
        "зна",
        -9.778510637868544
      ],
      [
        "стоимост",
        -9.779097484888052
      ],
      [
        "жил",
        -9.779136570366273
      ],
      [
        "зерн",
        -9.780440471965072
      ],
      [
        "отмечал",
        -9.780792937055402
      ],
      [
        "приноси",
        -9.782363600636106
      ],
      [
        "максим",
        -9.782644311800423
      ],
      [
        "верси",
        -9.782810343458449
      ],
      [
        "украинско",
        -9.783306482515068
      ],
      [
        "космическ",
        -9.78486462954846
      ],
      [
        "доби",
        -9.784962142969803
      ],
      [
        "направ",
        -9.78536967780049
      ],
      [
        "журналисто",
        -9.785711660911083
      ],
      [
        "планируем",
        -9.786548529035596
      ],
      [
        "ложения",
        -9.786780326836045
      ],
      [
        "нова",
        -9.78736185861017
      ],
      [
        "спецназ",
        -9.787878732671947
      ],
      [
        "связал",
        -9.79025413948723
      ],
      [
        "бежал",
        -9.790345324192616
      ],
      [
        "ическо",
        -9.7904577255973
      ],
      [
        "ник",
        -9.790635598338229
      ],
      [
        "оров",
        -9.791154377698486
      ],
      [
        "влади",
        -9.791171846222923
      ],
      [
        "турист",
        -9.791205905624818
      ],
      [
        "new",
        -9.79249134871615
      ],
      [
        "санкци",
        -9.79275429309194
      ],
      [
        "ъявил",
        -9.792803986301788
      ],
      [
        "водитель",
        -9.793095131175038
      ],
      [
        "диапазон",
        -9.79310872251362
      ],
      [
        "тольятти",
        -9.793108722550244
      ],
      [
        "столкновени",
        -9.793108722562256
      ],
      [
        "дальнобойны",
        -9.793108724337026
      ],
      [
        "экстремистск",
        -9.7931087412654
      ],
      [
        "религиозны",
        -9.79310874908817
      ],
      [
        "забастовк",
        -9.79310875364713
      ],
      [
        "петербургско",
        -9.793108757997976
      ],
      [
        "телеведущая",
        -9.793108782752451
      ],
      [
        "фрагмент",
        -9.793108784822657
      ],
      [
        "калифорни",
        -9.793108841533725
      ],
      [
        "собеседник",
        -9.79310886024489
      ],
      [
        "профилактик",
        -9.79310886202142
      ],
      [
        "соратник",
        -9.79310887095358
      ],
      [
        "прогноз",
        -9.79310913234408
      ],
      [
        "хирург",
        -9.793109334660542
      ],
      [
        "поднебесн",
        -9.793109418935815
      ],
      [
        "лекарств",
        -9.793109420905456
      ],
      [
        "стандарт",
        -9.793109421068651
      ],
      [
        "секунд",
        -9.793109583214148
      ],
      [
        "множеств",
        -9.793110460363405
      ],
      [
        "лицензи",
        -9.793110960484546
      ],
      [
        "элемент",
        -9.793111106542517
      ],
      [
        "австрали",
        -9.793111227087673
      ],
      [
        "месячно",
        -9.793113062131171
      ],
      [
        "контингент",
        -9.79311342314999
      ],
      [
        "потратил",
        -9.793114595578537
      ],
      [
        "бомбардировщик",
        -9.793115193945784
      ],
      [
        "кабмин",
        -9.793121042833826
      ],
      [
        "жидкост",
        -9.793124791431207
      ],
      [
        "ошибк",
        -9.793125910895974
      ],
      [
        "гварди",
        -9.793126566132823
      ],
      [
        "посольств",
        -9.79312796217359
      ],
      [
        "space",
        -9.793128884175836
      ],
      [
        "прежне",
        -9.793130749876768
      ],
      [
        "дальнейше",
        -9.793133421109768
      ],
      [
        "генпрокуратур",
        -9.79313648842772
      ],
      [
        "стэнтон",
        -9.793136804398069
      ],
      [
        "избира",
        -9.793138170407495
      ],
      [
        "беспокои",
        -9.793139208069409
      ],
      [
        "гашек",
        -9.793141367082264
      ],
      [
        "редуктор",
        -9.793143283784431
      ],
      [
        "спецпроекте",
        -9.793143886702724
      ],
      [
        "диалог",
        -9.793148198532872
      ],
      [
        "критическ",
        -9.79316343064633
      ],
      [
        "действительно",
        -9.793165370329708
      ],
      [
        "градус",
        -9.793175291173036
      ],
      [
        "защищенн",
        -9.793182316932572
      ],
      [
        "символ",
        -9.793187738936693
      ],
      [
        "артроз",
        -9.793188051427144
      ],
      [
        "зайцев",
        -9.793192083633892
      ],
      [
        "глубоко",
        -9.793194789624437
      ],
      [
        "музыкальн",
        -9.79320820234796
      ],
      [
        "внесен",
        -9.793213982908172
      ],
      [
        "for",
        -9.793220699956542
      ],
      [
        "jd",
        -9.793241008321525
      ],
      [
        "подозрительн",
        -9.793243382326464
      ],
      [
        "поручил",
        -9.793264766880563
      ],
      [
        "единиц",
        -9.793270656812144
      ],
      [
        "обработк",
        -9.793415142269351
      ],
      [
        "meta",
        -9.793426617138724
      ],
      [
        "подполковник",
        -9.793486616953942
      ],
      [
        "недовольны",
        -9.793512850447485
      ],
      [
        "истинны",
        -9.793522089037353
      ],
      [
        "sky",
        -9.793590107531395
      ],
      [
        "терминал",
        -9.793590348938896
      ],
      [
        "класс",
        -9.793612650668628
      ],
      [
        "поблагодарил",
        -9.793618277217616
      ],
      [
        "пустя",
        -9.793662272013629
      ],
      [
        "отпуск",
        -9.793699966861183
      ],
      [
        "поттер",
        -9.79371740975413
      ],
      [
        "news",
        -9.79374473540009
      ],
      [
        "противостояни",
        -9.793828479378147
      ],
      [
        "дочер",
        -9.793976718465789
      ],
      [
        "значился",
        -9.794004101544772
      ],
      [
        "туроператор",
        -9.794063212618656
      ],
      [
        "влияющи",
        -9.79414678952858
      ],
      [
        "воздух",
        -9.794254830702222
      ],
      [
        "ликвидаци",
        -9.794336939325095
      ],
      [
        "заверил",
        -9.794403640804608
      ],
      [
        "приехал",
        -9.794452018345314
      ],
      [
        "нагрузк",
        -9.794992904464204
      ],
      [
        "перспективны",
        -9.795240787329652
      ],
      [
        "проходи",
        -9.795398845351832
      ],
      [
        "родител",
        -9.795401346627443
      ],
      [
        "ибуд",
        -9.795473950163547
      ],
      [
        "рассмотрени",
        -9.795486062203558
      ],
      [
        "архи",
        -9.795507702259696
      ],
      [
        "аэро",
        -9.795575674321055
      ],
      [
        "автоматически",
        -9.795683729862652
      ],
      [
        "парков",
        -9.79590396123692
      ],
      [
        "попов",
        -9.795920467036114
      ],
      [
        "прошло",
        -9.796070258703375
      ],
      [
        "доставк",
        -9.796330228177316
      ],
      [
        "иимодел",
        -9.796445223900136
      ],
      [
        "выгодно",
        -9.796547207898962
      ],
      [
        "is",
        -9.796639936369944
      ],
      [
        "экспертиз",
        -9.796640486759507
      ],
      [
        "пострада",
        -9.796648311169976
      ],
      [
        "мон",
        -9.796683024040457
      ],
      [
        "ипотек",
        -9.7967472744541
      ],
      [
        "укра",
        -9.79697161959282
      ],
      [
        "четверт",
        -9.797005204143147
      ],
      [
        "редко",
        -9.797287485430171
      ],
      [
        "слышал",
        -9.797309520995082
      ],
      [
        "режиссера",
        -9.797387476247623
      ],
      [
        "жправительственн",
        -9.797861753492922
      ],
      [
        "претенд",
        -9.797951941749854
      ],
      [
        "необходим",
        -9.797961408418455
      ],
      [
        "окончани",
        -9.79832118523419
      ],
      [
        "вспоминал",
        -9.798526459608931
      ],
      [
        "отметили",
        -9.798659446245132
      ],
      [
        "координатор",
        -9.798754841415573
      ],
      [
        "виз",
        -9.798928260095089
      ],
      [
        "торгово",
        -9.799311869819958
      ],
      [
        "небольшо",
        -9.799373325768132
      ],
      [
        "посланник",
        -9.799585810555056
      ],
      [
        "бизнес",
        -9.79965710370906
      ],
      [
        "пришло",
        -9.799913009090512
      ],
      [
        "реплик",
        -9.800083755186364
      ],
      [
        "искренн",
        -9.800235759612203
      ],
      [
        "ожидани",
        -9.800402927591158
      ],
      [
        "заметил",
        -9.800403655545963
      ],
      [
        "оперативно",
        -9.800577224990258
      ],
      [
        "студи",
        -9.80095382448414
      ],
      [
        "прожива",
        -9.801217576214608
      ],
      [
        "находит",
        -9.801381449224618
      ],
      [
        "вод",
        -9.801603211248068
      ],
      [
        "продолжают",
        -9.80173701795674
      ],
      [
        "небе",
        -9.80187472011187
      ],
      [
        "эл",
        -9.80230158526455
      ],
      [
        "аль",
        -9.802361853770504
      ],
      [
        "владимиром",
        -9.80254574016154
      ],
      [
        "флаг",
        -9.802688648910516
      ],
      [
        "материал",
        -9.80307491605814
      ],
      [
        "версия",
        -9.80333054515187
      ],
      [
        "аборт",
        -9.80334074275727
      ],
      [
        "свободно",
        -9.80364162409824
      ],
      [
        "блэкауто",
        -9.80379880468262
      ],
      [
        "повестк",
        -9.804536365785102
      ],
      [
        "эк",
        -9.80488106968349
      ],
      [
        "пенси",
        -9.80488872290514
      ],
      [
        "ушел",
        -9.804946717588289
      ],
      [
        "какие",
        -9.805033303823146
      ],
      [
        "пресечени",
        -9.806058883179873
      ],
      [
        "вызвал",
        -9.80628863742909
      ],
      [
        "бросил",
        -9.8063032586995
      ],
      [
        "роско",
        -9.806473976364323
      ],
      [
        "призван",
        -9.80652556700063
      ],
      [
        "покинул",
        -9.806987462518508
      ],
      [
        "заключени",
        -9.80702718361336
      ],
      [
        "присутствова",
        -9.807713136670868
      ],
      [
        "находил",
        -9.807953584221533
      ],
      [
        "стратегически",
        -9.808329874938227
      ],
      [
        "радио",
        -9.80835744508213
      ],
      [
        "необходимо",
        -9.808747467117428
      ],
      [
        "стоимость",
        -9.80882047471216
      ],
      [
        "баб",
        -9.809111094158329
      ],
      [
        "разрабатыва",
        -9.80924574500606
      ],
      [
        "теори",
        -9.80928481251348
      ],
      [
        "tor",
        -9.809323894849028
      ],
      [
        "en",
        -9.80934036291689
      ],
      [
        "рукоп",
        -9.80952539962621
      ],
      [
        "гаван",
        -9.80953168385698
      ],
      [
        "больши",
        -9.809725084727203
      ],
      [
        "правила",
        -9.809769343516736
      ],
      [
        "рассказыва",
        -9.81023018102376
      ],
      [
        "ды",
        -9.810252697065128
      ],
      [
        "тяж",
        -9.811094351838534
      ],
      [
        "покупк",
        -9.811375063344489
      ],
      [
        "вый",
        -9.81194884729696
      ],
      [
        "инди",
        -9.812190336113757
      ],
      [
        "ишь",
        -9.812355629958365
      ],
      [
        "женщиной",
        -9.812753730801624
      ],
      [
        "голов",
        -9.8130509216154
      ],
      [
        "привлек",
        -9.813569745225918
      ],
      [
        "волны",
        -9.814171942815424
      ],
      [
        "полн",
        -9.814406860786908
      ],
      [
        "ben",
        -9.814590753664405
      ],
      [
        "розничны",
        -9.814899416949077
      ],
      [
        "коротк",
        -9.81552632821398
      ],
      [
        "энерги",
        -9.815569025164326
      ],
      [
        "ce",
        -9.815659512529162
      ],
      [
        "проф",
        -9.816573567134732
      ],
      [
        "it",
        -9.81703067653305
      ],
      [
        "ительны",
        -9.817213302294604
      ],
      [
        "нико",
        -9.818380814296358
      ],
      [
        "обеспечит",
        -9.818500186957255
      ],
      [
        "гражданско",
        -9.818693552484037
      ],
      [
        "тически",
        -9.818808024626971
      ],
      [
        "координаци",
        -9.820198907434111
      ],
      [
        "корабли",
        -9.821017659081086
      ],
      [
        "исполнительны",
        -9.82161291809486
      ],
      [
        "бан",
        -9.822820191900972
      ],
      [
        "америк",
        -9.822996834027933
      ],
      [
        "зафиксирован",
        -9.823905686420243
      ],
      [
        "детско",
        -9.824442486051575
      ],
      [
        "механи",
        -9.825300397070873
      ],
      [
        "fra",
        -9.825947766582429
      ],
      [
        "линк",
        -9.826743692360798
      ],
      [
        "домо",
        -9.82729557418498
      ],
      [
        "iva",
        -9.82813845195624
      ],
      [
        "li",
        -9.828142925169695
      ],
      [
        "баку",
        -9.828450687209582
      ],
      [
        "одобрени",
        -9.830750574871836
      ],
      [
        "наблюд",
        -9.8309053886641
      ],
      [
        "преступления",
        -9.831184848178744
      ],
      [
        "любов",
        -9.83125008064163
      ],
      [
        "сравнени",
        -9.831439792980888
      ],
      [
        "команду",
        -9.832100268536609
      ],
      [
        "замо",
        -9.832508336305771
      ],
      [
        "попыта",
        -9.832655244206968
      ],
      [
        "выросл",
        -9.8332410354825
      ],
      [
        "сумм",
        -9.833811586036957
      ],
      [
        "почтенн",
        -9.83471839445136
      ],
      [
        "грузк",
        -9.834803256413924
      ],
      [
        "док",
        -9.835077928741432
      ],
      [
        "коллеги",
        -9.835768599091873
      ],
      [
        "олог",
        -9.837004381566611
      ],
      [
        "активны",
        -9.837940395951769
      ],
      [
        "ine",
        -9.83827371734572
      ],
      [
        "прочи",
        -9.840092326863624
      ],
      [
        "государственны",
        -9.840129706251648
      ],
      [
        "смогут",
        -9.840167009514104
      ],
      [
        "гно",
        -9.841347871331116
      ],
      [
        "закончил",
        -9.841372221695142
      ],
      [
        "чиновнико",
        -9.8415231640519
      ],
      [
        "однок",
        -9.841727441435223
      ],
      [
        "противник",
        -9.842613038158367
      ],
      [
        "охран",
        -9.843206392225078
      ],
      [
        "миграционн",
        -9.843322210363318
      ],
      [
        "оказывает",
        -9.84385488972864
      ],
      [
        "ист",
        -9.844024436508514
      ],
      [
        "полин",
        -9.844396101235231
      ],
      [
        "дополнительн",
        -9.846264607923294
      ],
      [
        "чак",
        -9.846345767049138
      ],
      [
        "важне",
        -9.84636049944309
      ],
      [
        "нынешне",
        -9.846452414096245
      ],
      [
        "независим",
        -9.846483466303225
      ],
      [
        "sp",
        -9.846834999523578
      ],
      [
        "поклонник",
        -9.84742490508657
      ],
      [
        "участк",
        -9.847566410184925
      ],
      [
        "война",
        -9.84845407407379
      ],
      [
        "океан",
        -9.849274137651904
      ],
      [
        "кош",
        -9.849434473189586
      ],
      [
        "энергети",
        -9.849873480654152
      ],
      [
        "комментиру",
        -9.850628458930675
      ],
      [
        "друго",
        -9.851209162268672
      ],
      [
        "зи",
        -9.852857132575483
      ],
      [
        "ве",
        -9.852857224319484
      ],
      [
        "основ",
        -9.85289173939196
      ],
      [
        "задача",
        -9.852898573674258
      ],
      [
        "появ",
        -9.855230535050412
      ],
      [
        "особу",
        -9.855278095778496
      ],
      [
        "криптовалют",
        -9.85529655147766
      ],
      [
        "met",
        -9.85537100687786
      ],
      [
        "рушения",
        -9.85548068331408
      ],
      [
        "арта",
        -9.855835934382991
      ],
      [
        "коло",
        -9.856116875048434
      ],
      [
        "интернетресурс",
        -9.85639810424119
      ],
      [
        "нрави",
        -9.856500560690616
      ],
      [
        "кел",
        -9.856742495305076
      ],
      [
        "омк",
        -9.857178824421789
      ],
      [
        "вших",
        -9.857478823473938
      ],
      [
        "na",
        -9.858241021422137
      ],
      [
        "знамениты",
        -9.858578188261456
      ],
      [
        "скать",
        -9.858755556566589
      ],
      [
        "co",
        -9.859183619616214
      ],
      [
        "президентств",
        -9.86089991739115
      ],
      [
        "достигл",
        -9.861364563036751
      ],
      [
        "жили",
        -9.862105572677075
      ],
      [
        "шки",
        -9.86257142706657
      ],
      [
        "we",
        -9.862584840401428
      ],
      [
        "мощность",
        -9.86335299481602
      ],
      [
        "неожиданно",
        -9.865179594440118
      ],
      [
        "правлени",
        -9.865219889620638
      ],
      [
        "значительн",
        -9.865222665503437
      ],
      [
        "критик",
        -9.865710318246265
      ],
      [
        "переда",
        -9.867611155501946
      ],
      [
        "городе",
        -9.867782623701997
      ],
      [
        "торговл",
        -9.868782349673632
      ],
      [
        "кие",
        -9.869321176483329
      ],
      [
        "понятн",
        -9.869666551599591
      ],
      [
        "подруг",
        -9.870404354553507
      ],
      [
        "еля",
        -9.87057411313273
      ],
      [
        "заверш",
        -9.871038963858908
      ],
      [
        "воло",
        -9.87414756814427
      ],
      [
        "нс",
        -9.875239837398851
      ],
      [
        "вшая",
        -9.87535453384929
      ],
      [
        "путе",
        -9.875953983097842
      ],
      [
        "ступил",
        -9.875959689203334
      ],
      [
        "принима",
        -9.876292241672722
      ],
      [
        "ers",
        -9.87669833252485
      ],
      [
        "наче",
        -9.877176319311555
      ],
      [
        "внешн",
        -9.877320882618
      ],
      [
        "ства",
        -9.877695057899285
      ],
      [
        "покупа",
        -9.878492178743151
      ],
      [
        "брать",
        -9.87858583026286
      ],
      [
        "мах",
        -9.8790218442509
      ],
      [
        "выясни",
        -9.879117277288838
      ],
      [
        "справочнике",
        -9.879528480300854
      ],
      [
        "открыты",
        -9.879974531632058
      ],
      [
        "чер",
        -9.880087708686254
      ],
      [
        "итет",
        -9.881858143760295
      ],
      [
        "ирони",
        -9.882409688985105
      ],
      [
        "оз",
        -9.88321275527015
      ],
      [
        "иностранным",
        -9.88393154519059
      ],
      [
        "рабоче",
        -9.884635269235034
      ],
      [
        "обеспечен",
        -9.88594532214844
      ],
      [
        "мера",
        -9.886064381376544
      ],
      [
        "достиг",
        -9.886325496062698
      ],
      [
        "соб",
        -9.886470795396118
      ],
      [
        "продукт",
        -9.88752184712928
      ],
      [
        "украина",
        -9.88771884216728
      ],
      [
        "ять",
        -9.88827224524338
      ],
      [
        "закупк",
        -9.888512924898272
      ],
      [
        "пул",
        -9.888661058305567
      ],
      [
        "дипломатически",
        -9.889478230413806
      ],
      [
        "ехать",
        -9.889650021908851
      ],
      [
        "чь",
        -9.891007680887864
      ],
      [
        "тяже",
        -9.8912093023764
      ],
      [
        "популярност",
        -9.891448702096868
      ],
      [
        "общественн",
        -9.89207710465865
      ],
      [
        "нес",
        -9.894026528714678
      ],
      [
        "десят",
        -9.895367521058946
      ],
      [
        "вшей",
        -9.896013985818897
      ],
      [
        "дружеск",
        -9.897322624460369
      ],
      [
        "существу",
        -9.897948075273842
      ],
      [
        "продвижени",
        -9.899221471550971
      ],
      [
        "сцене",
        -9.899358750707515
      ],
      [
        "большинство",
        -9.900108855304133
      ],
      [
        "епарат",
        -9.901175467925656
      ],
      [
        "уз",
        -9.90199203816632
      ],
      [
        "значи",
        -9.904276283404458
      ],
      [
        "ался",
        -9.904324877947484
      ],
      [
        "венз",
        -9.905005948974551
      ],
      [
        "гуманитарны",
        -9.905643057894876
      ],
      [
        "диз",
        -9.90650475715216
      ],
      [
        "арламент",
        -9.90682852171294
      ],
      [
        "ответственн",
        -9.907279538808044
      ],
      [
        "ch",
        -9.907449501347426
      ],
      [
        "океана",
        -9.907465775074588
      ],
      [
        "ирует",
        -9.908170879383722
      ],
      [
        "верховн",
        -9.908376730560988
      ],
      [
        "особо",
        -9.909066353857805
      ],
      [
        "сидел",
        -9.90959274613309
      ],
      [
        "вернул",
        -9.909659990322558
      ],
      [
        "душ",
        -9.909752338959525
      ],
      [
        "фак",
        -9.911684688416653
      ],
      [
        "sla",
        -9.9120016132931
      ],
      [
        "страхова",
        -9.913539491894504
      ],
      [
        "лайнмошенничеств",
        -9.913557835639264
      ],
      [
        "летчик",
        -9.914020242222882
      ],
      [
        "оказал",
        -9.9142437983499
      ],
      [
        "танц",
        -9.914416003055642
      ],
      [
        "гуманитарн",
        -9.915091043232824
      ],
      [
        "став",
        -9.91657509705122
      ],
      [
        "соотечественник",
        -9.91737606611206
      ],
      [
        "обеспечение",
        -9.917439448549858
      ],
      [
        "авшим",
        -9.918625915868768
      ],
      [
        "тами",
        -9.919489007125136
      ],
      [
        "правда",
        -9.920147353844444
      ],
      [
        "лог",
        -9.921172904361454
      ],
      [
        "утверждени",
        -9.92160934789656
      ],
      [
        "вает",
        -9.9219196281944
      ],
      [
        "поднима",
        -9.92238601559774
      ],
      [
        "высоки",
        -9.924276984648673
      ],
      [
        "чрезвычайно",
        -9.92527266000422
      ],
      [
        "наход",
        -9.925534419114292
      ],
      [
        "избирательн",
        -9.92616010049752
      ],
      [
        "лич",
        -9.927771112074495
      ],
      [
        "_",
        -9.928674589456342
      ],
      [
        "драт",
        -9.928838756829688
      ],
      [
        "стве",
        -9.930708508419883
      ],
      [
        "сообща",
        -9.931186770239492
      ],
      [
        "включае",
        -9.936505542999438
      ],
      [
        "специальн",
        -9.937179936465776
      ],
      [
        "подо",
        -9.938166078225317
      ],
      [
        "метод",
        -9.938347959015406
      ],
      [
        "дают",
        -9.93854044822389
      ],
      [
        "bri",
        -9.939572573814983
      ],
      [
        "устройств",
        -9.940303491073069
      ],
      [
        "венным",
        -9.94034230150938
      ],
      [
        "би",
        -9.941087191403092
      ],
      [
        "информационны",
        -9.941487615284782
      ],
      [
        "знак",
        -9.942078547009505
      ],
      [
        "гк",
        -9.942154597945418
      ],
      [
        "вшим",
        -9.943147494101598
      ],
      [
        "объекта",
        -9.943902263837249
      ],
      [
        "руководителе",
        -9.944003959715443
      ],
      [
        "вертолета",
        -9.944305559714254
      ],
      [
        "серьезны",
        -9.944411055857527
      ],
      [
        "внешне",
        -9.944675188113465
      ],
      [
        "взорва",
        -9.945739572449089
      ],
      [
        "мирном",
        -9.947353608036856
      ],
      [
        "здани",
        -9.947478722489508
      ],
      [
        "ute",
        -9.948029630107737
      ],
      [
        "назначени",
        -9.949074256418566
      ],
      [
        "смеха",
        -9.949310433764854
      ],
      [
        "джо",
        -9.949485759710086
      ],
      [
        "промышленн",
        -9.950448421777889
      ],
      [
        "принадлеж",
        -9.951260709352606
      ],
      [
        "чу",
        -9.951368108846156
      ],
      [
        "ри",
        -9.953105697134616
      ],
      [
        "менял",
        -9.9550592140561
      ],
      [
        "сообщало",
        -9.9553798720182
      ],
      [
        "овал",
        -9.955434990579697
      ],
      [
        "рез",
        -9.956292239070486
      ],
      [
        "ирован",
        -9.95664499251786
      ],
      [
        "грози",
        -9.956810077316026
      ],
      [
        "хар",
        -9.957827016114027
      ],
      [
        "ec",
        -9.958229788613169
      ],
      [
        "тором",
        -9.958254084633316
      ],
      [
        "призываю",
        -9.958661652022032
      ],
      [
        "личны",
        -9.95953605745557
      ],
      [
        "был",
        -9.95988284216289
      ],
      [
        "треть",
        -9.959903837484545
      ],
      [
        "фра",
        -9.96020909211684
      ],
      [
        "довольн",
        -9.960340370679749
      ],
      [
        "очка",
        -9.960684383852902
      ],
      [
        "нац",
        -9.9622751685123
      ],
      [
        "ще",
        -9.964686744153354
      ],
      [
        "обща",
        -9.967197895510225
      ],
      [
        "ey",
        -9.967551464095012
      ],
      [
        "эффективн",
        -9.968846035339968
      ],
      [
        "возник",
        -9.969530740196204
      ],
      [
        "признал",
        -9.970260239082542
      ],
      [
        "xic",
        -9.971339461077507
      ],
      [
        "замен",
        -9.971428438533
      ],
      [
        "члена",
        -9.971574149218212
      ],
      [
        "писал",
        -9.971639065027
      ],
      [
        "ний",
        -9.972567013291508
      ],
      [
        "ующим",
        -9.97295247916904
      ],
      [
        "всемирно",
        -9.973272993820764
      ],
      [
        "мема",
        -9.973672704121483
      ],
      [
        "оказать",
        -9.974076034169364
      ],
      [
        "вице",
        -9.9759381993632
      ],
      [
        "любо",
        -9.979101765164131
      ],
      [
        "родила",
        -9.97943533283059
      ],
      [
        "органа",
        -9.979625572084778
      ],
      [
        "мос",
        -9.980005032025014
      ],
      [
        "ридо",
        -9.981016626266062
      ],
      [
        "ьны",
        -9.986342874984508
      ],
      [
        "диспетчер",
        -9.986795709284864
      ],
      [
        "семейно",
        -9.989088069505192
      ],
      [
        "стабильн",
        -9.991378930067992
      ],
      [
        "ведения",
        -9.991706408812334
      ],
      [
        "ирование",
        -9.994121424046943
      ],
      [
        "бирж",
        -9.99469872544996
      ],
      [
        "ph",
        -9.995532724427738
      ],
      [
        "сегмент",
        -9.995797283137115
      ],
      [
        "микро",
        -9.995810372390638
      ],
      [
        "возл",
        -9.995887239079886
      ],
      [
        "вырос",
        -9.996140554840036
      ],
      [
        "завел",
        -9.996207298088144
      ],
      [
        "летнего",
        -9.9966083714448
      ],
      [
        "слышн",
        -9.9966349911826
      ],
      [
        "лидеро",
        -9.99786568814966
      ],
      [
        "защища",
        -9.999992110881482
      ],
      [
        "указан",
        -10.00001025947849
      ],
      [
        "рфв",
        -10.00089129929256
      ],
      [
        "разд",
        -10.00172118891178
      ],
      [
        "различны",
        -10.001735257619483
      ],
      [
        "maga",
        -10.00224957120029
      ],
      [
        "курса",
        -10.004028436327951
      ],
      [
        "уша",
        -10.005089349683573
      ],
      [
        "овку",
        -10.00584956630561
      ],
      [
        "плод",
        -10.006206878850923
      ],
      [
        "sta",
        -10.006873916053635
      ],
      [
        "антов",
        -10.0071569241194
      ],
      [
        "безопасн",
        -10.007773037577662
      ],
      [
        "корабл",
        -10.00843441130436
      ],
      [
        "предложенно",
        -10.00899846102147
      ],
      [
        "демократ",
        -10.009798968419972
      ],
      [
        "инвест",
        -10.0100019216142
      ],
      [
        "пас",
        -10.01035289520692
      ],
      [
        "имен",
        -10.011966634891031
      ],
      [
        "участ",
        -10.0120578170417
      ],
      [
        "мероприяти",
        -10.0125265009548
      ],
      [
        "вне",
        -10.013029137046638
      ],
      [
        "площад",
        -10.01304431523364
      ],
      [
        "овет",
        -10.013307082703747
      ],
      [
        "показател",
        -10.013668927769354
      ],
      [
        "ливо",
        -10.0155870956201
      ],
      [
        "нами",
        -10.017430607251164
      ],
      [
        "тов",
        -10.01857199327007
      ],
      [
        "экономическо",
        -10.019247835557396
      ],
      [
        "заголовк",
        -10.019335528973995
      ],
      [
        "матери",
        -10.023222090295102
      ],
      [
        "приняли",
        -10.023957784805912
      ],
      [
        "on",
        -10.024320957950302
      ],
      [
        "стер",
        -10.025541996240742
      ],
      [
        "соедин",
        -10.027003251975245
      ],
      [
        "говор",
        -10.027761413118563
      ],
      [
        "щи",
        -10.028258753208192
      ],
      [
        "здоров",
        -10.028805036876888
      ],
      [
        "московско",
        -10.029539943199952
      ],
      [
        "посел",
        -10.029604835599391
      ],
      [
        "крупно",
        -10.029991355844956
      ],
      [
        "стоян",
        -10.030062851676682
      ],
      [
        "la",
        -10.030293229758206
      ],
      [
        "энерго",
        -10.030698704450788
      ],
      [
        "взят",
        -10.03085699355486
      ],
      [
        "зачита",
        -10.033097080795145
      ],
      [
        "пользу",
        -10.03362652364826
      ],
      [
        "нер",
        -10.034581244793404
      ],
      [
        "давай",
        -10.035241687391633
      ],
      [
        "нос",
        -10.038305815840197
      ],
      [
        "январ",
        -10.03864999181894
      ],
      [
        "экспресс",
        -10.039605377384513
      ],
      [
        "трудно",
        -10.039701866057616
      ],
      [
        "блогер",
        -10.0397125124099
      ],
      [
        "кибер",
        -10.04038843321742
      ],
      [
        "предел",
        -10.04083508093968
      ],
      [
        "youtube",
        -10.041077387216578
      ],
      [
        "вероятно",
        -10.041111496168416
      ],
      [
        "читател",
        -10.041756199388372
      ],
      [
        "pu",
        -10.042282106492856
      ],
      [
        "сок",
        -10.042471808760393
      ],
      [
        "java",
        -10.042605054123763
      ],
      [
        "полковник",
        -10.042646035578429
      ],
      [
        "протяжен",
        -10.042765396716314
      ],
      [
        "террор",
        -10.04277303768168
      ],
      [
        "axi",
        -10.042933381240216
      ],
      [
        "ентификаци",
        -10.04304862864462
      ],
      [
        "анкет",
        -10.043090368804268
      ],
      [
        "уляторн",
        -10.04309600187366
      ],
      [
        "ё",
        -10.043108720842946
      ],
      [
        "ї",
        -10.043108720842946
      ],
      [
        "9",
        -10.043108720842946
      ],
      [
        "калининград",
        -10.0431087210859
      ],
      [
        "предсказуемы",
        -10.043108721775006
      ],
      [
        "экстрадици",
        -10.043108722924416
      ],
      [
        "абсолютно",
        -10.043108723199706
      ],
      [
        "минпромторг",
        -10.043108723602536
      ],
      [
        "иерусалим",
        -10.04310872387121
      ],
      [
        "лабрадор",
        -10.043108724904732
      ],
      [
        "непосредственно",
        -10.043108727237955
      ],
      [
        "батончик",
        -10.043108736180647
      ],
      [
        "чрезмерн",
        -10.04310873915948
      ],
      [
        "инспекци",
        -10.043108740169377
      ],
      [
        "подчеркивал",
        -10.043108742215736
      ],
      [
        "прапрапра",
        -10.043108745354123
      ],
      [
        "боеприпас",
        -10.043108747061195
      ],
      [
        "financ",
        -10.043108754903944
      ],
      [
        "джизакско",
        -10.043108755203091
      ],
      [
        "друзья",
        -10.043108774278458
      ],
      [
        "эксцентричн",
        -10.043108794200048
      ],
      [
        "процедур",
        -10.04310879838252
      ],
      [
        "рекомендова",
        -10.043108807796893
      ],
      [
        "импичмент",
        -10.043108817258837
      ],
      [
        "конференц",
        -10.043108822173648
      ],
      [
        "шотланд",
        -10.043108822729735
      ],
      [
        "эскалаци",
        -10.043108965397458
      ],
      [
        "эксперимент",
        -10.04310898372282
      ],
      [
        "двигател",
        -10.043109112478884
      ],
      [
        "ощущени",
        -10.043109158619387
      ],
      [
        "оговаривал",
        -10.043109252193313
      ],
      [
        "экипаж",
        -10.043109274735894
      ],
      [
        "прозвучал",
        -10.043109396181649
      ],
      [
        "кукуруз",
        -10.04310950619399
      ],
      [
        "сельхоз",
        -10.043109585412546
      ],
      [
        "госпитализ",
        -10.043109724775016
      ],
      [
        "финополис",
        -10.043109889083636
      ],
      [
        "репутаци",
        -10.043109914255837
      ],
      [
        "отчуждени",
        -10.043110115765982
      ],
      [
        "традиция",
        -10.043110249968064
      ],
      [
        "востребован",
        -10.043110413130666
      ],
      [
        "таджикистан",
        -10.043110676351183
      ],
      [
        "пребывани",
        -10.04311102716222
      ],
      [
        "отрывк",
        -10.043111430192386
      ],
      [
        "трагически",
        -10.04311173693303
      ],
      [
        "нормунд",
        -10.043115340373678
      ],
      [
        "надзирательниц",
        -10.04311552906481
      ],
      [
        "клумб",
        -10.043115565320678
      ],
      [
        "корпус",
        -10.043115599023428
      ],
      [
        "выгнал",
        -10.043115667669044
      ],
      [
        "стендап",
        -10.043116406023618
      ],
      [
        "упрекал",
        -10.043117015034724
      ],
      [
        "свежем",
        -10.04311712792042
      ],
      [
        "посредничество",
        -10.043117790803768
      ],
      [
        "пишет",
        -10.043118176432383
      ],
      [
        "окончательно",
        -10.043118950465129
      ],
      [
        "логистик",
        -10.043120049101333
      ],
      [
        "провоцир",
        -10.04312069156722
      ],
      [
        "минимум",
        -10.043121347179705
      ],
      [
        "мустаф",
        -10.04312137928302
      ],
      [
        "христенко",
        -10.04312151843544
      ],
      [
        "пандеми",
        -10.043121805648108
      ],
      [
        "касьянов",
        -10.04312301071346
      ],
      [
        "попавшие",
        -10.043126366423191
      ],
      [
        "дворц",
        -10.04312642183392
      ],
      [
        "законодательств",
        -10.043126910006896
      ],
      [
        "ущерб",
        -10.04312709522063
      ],
      [
        "колледж",
        -10.043127834923617
      ],
      [
        "абдул",
        -10.043133037934268
      ],
      [
        "безуспешно",
        -10.043133635373556
      ],
      [
        "физическ",
        -10.04313633557707
      ],
      [
        "превыша",
        -10.043138036282452
      ],
      [
        "зарабатываю",
        -10.043138076484391
      ],
      [
        "аналогичны",
        -10.043141014704986
      ],
      [
        "инфляци",
        -10.043142325130976
      ],
      [
        "михеев",
        -10.043145105478706
      ],
      [
        "ястреб",
        -10.043149778902322
      ],
      [
        "приобрел",
        -10.043151651989366
      ],
      [
        "спортсмен",
        -10.043155689027506
      ],
      [
        "велден",
        -10.043156458883148
      ],
      [
        "цветочны",
        -10.043160351661705
      ],
      [
        "портфел",
        -10.043160385418483
      ],
      [
        "достигнут",
        -10.043173364166677
      ],
      [
        "веществ",
        -10.04318004950088
      ],
      [
        "владел",
        -10.043184168880137
      ],
      [
        "публичн",
        -10.04318443821485
      ],
      [
        "байден",
        -10.04320663589416
      ],
      [
        "дирекци",
        -10.043208193654449
      ],
      [
        "полноценн",
        -10.043215163687869
      ],
      [
        "евросоюза",
        -10.043215737873687
      ],
      [
        "нелегальн",
        -10.04321735450796
      ],
      [
        "отстаива",
        -10.04322215808662
      ],
      [
        "таиланд",
        -10.043222223200484
      ],
      [
        "хрящ",
        -10.043224464435411
      ],
      [
        "загородны",
        -10.04323444776393
      ],
      [
        "бумаг",
        -10.043241758376286
      ],
      [
        "красив",
        -10.043254025172542
      ],
      [
        "самозаняты",
        -10.043255896580302
      ],
      [
        "und",
        -10.043264125110468
      ],
      [
        "положени",
        -10.04326645182263
      ],
      [
        "генпрокурор",
        -10.043275328376875
      ],
      [
        "обостр",
        -10.043277684190205
      ],
      [
        "законопроект",
        -10.043299821725254
      ],
      [
        "красот",
        -10.043312852493756
      ],
      [
        "распространил",
        -10.043319274825922
      ],
      [
        "благо",
        -10.043323960847273
      ],
      [
        "спирт",
        -10.043329854466633
      ],
      [
        "потомк",
        -10.043356090911418
      ],
      [
        "способствова",
        -10.04338381589008
      ],
      [
        "крушельницкий",
        -10.043413059956135
      ],
      [
        "вкиеве",
        -10.043418916929618
      ],
      [
        "главнокомандующ",
        -10.043440268583211
      ],
      [
        "протест",
        -10.043451962242418
      ],
      [
        "крылат",
        -10.0434627231108
      ],
      [
        "берлин",
        -10.043470946742424
      ],
      [
        "льгот",
        -10.04357964596222
      ],
      [
        "группиров",
        -10.043586843177588
      ],
      [
        "арри",
        -10.043603880172023
      ],
      [
        "автоном",
        -10.043716917037294
      ],
      [
        "клиник",
        -10.043768815181808
      ],
      [
        "базирова",
        -10.04377262684579
      ],
      [
        "единственны",
        -10.043794479908412
      ],
      [
        "отбор",
        -10.043808694700523
      ],
      [
        "паруби",
        -10.0438352372324
      ],
      [
        "po",
        -10.043835519085
      ],
      [
        "сдержива",
        -10.043915732144187
      ],
      [
        "iv",
        -10.04394422452816
      ],
      [
        "модернизаци",
        -10.043955957817808
      ],
      [
        "талант",
        -10.043987298738903
      ],
      [
        "синоп",
        -10.044031592527162
      ],
      [
        "мышц",
        -10.04417980172195
      ],
      [
        "потребовал",
        -10.0441907849634
      ],
      [
        "формально",
        -10.044276676733045
      ],
      [
        "добавля",
        -10.044305792663268
      ],
      [
        "max",
        -10.044314438183752
      ],
      [
        "стефан",
        -10.044373178479807
      ],
      [
        "дву",
        -10.04440039659216
      ],
      [
        "посол",
        -10.044409928720212
      ],
      [
        "пообещал",
        -10.044442087350577
      ],
      [
        "василь",
        -10.044448749857333
      ],
      [
        "зм",
        -10.044510960953325
      ],
      [
        "проводят",
        -10.044586274004036
      ],
      [
        "управляемы",
        -10.0445869786302
      ],
      [
        "писем",
        -10.044598904484069
      ],
      [
        "предпринят",
        -10.044707421392776
      ],
      [
        "признавал",
        -10.04470785117337
      ],
      [
        "способ",
        -10.044745902929597
      ],
      [
        "бомб",
        -10.044876534865203
      ],
      [
        "сдавал",
        -10.044889842579693
      ],
      [
        "втянут",
        -10.04492417232522
      ],
      [
        "поехал",
        -10.044932692334708
      ],
      [
        "гранич",
        -10.045011005775171
      ],
      [
        "руководил",
        -10.045250625700502
      ],
      [
        "хранени",
        -10.04542927845332
      ],
      [
        "запас",
        -10.045598712849545
      ],
      [
        "ru",
        -10.04563552444622
      ],
      [
        "пауз",
        -10.045702389891998
      ],
      [
        "своевременно",
        -10.045736354190176
      ],
      [
        "случился",
        -10.045932123692582
      ],
      [
        "задумал",
        -10.046060971354422
      ],
      [
        "дило",
        -10.046133913061942
      ],
      [
        "борис",
        -10.046230163987438
      ],
      [
        "обязан",
        -10.046373089866124
      ],
      [
        "посла",
        -10.046679309590228
      ],
      [
        "itz",
        -10.046760736444412
      ],
      [
        "бесед",
        -10.046765192737508
      ],
      [
        "семейств",
        -10.04684958526746
      ],
      [
        "масштабный",
        -10.046932684887002
      ],
      [
        "ящего",
        -10.046970097163673
      ],
      [
        "мерц",
        -10.047040016275265
      ],
      [
        "арестован",
        -10.047388872653835
      ],
      [
        "успех",
        -10.04743601433047
      ],
      [
        "спрашивал",
        -10.047512315274126
      ],
      [
        "крыш",
        -10.047623161698
      ],
      [
        "происшествия",
        -10.047653617037454
      ],
      [
        "перечисл",
        -10.047671531118477
      ],
      [
        "возглавлял",
        -10.047704670715314
      ],
      [
        "внедрени",
        -10.047713352959626
      ],
      [
        "отве",
        -10.047777189246151
      ],
      [
        "январь",
        -10.04783689359068
      ],
      [
        "письм",
        -10.047986894011828
      ],
      [
        "родивши",
        -10.048473072216488
      ],
      [
        "обвинил",
        -10.04865485476038
      ],
      [
        "фамильн",
        -10.048837509696211
      ],
      [
        "летне",
        -10.04888913678059
      ],
      [
        "уголовник",
        -10.048997967995046
      ],
      [
        "документах",
        -10.049080521855894
      ],
      [
        "пожарн",
        -10.049259774082495
      ],
      [
        "ысокопоставленны",
        -10.049376988639915
      ],
      [
        "расход",
        -10.049525075463103
      ],
      [
        "учился",
        -10.049707054618894
      ],
      [
        "героя",
        -10.049807153052098
      ],
      [
        "ящий",
        -10.049966255998864
      ],
      [
        "выну",
        -10.0500003144052
      ],
      [
        "ответил",
        -10.050303597340088
      ],
      [
        "исчезновения",
        -10.050791664138242
      ],
      [
        "спецназов",
        -10.050911206843224
      ],
      [
        "павл",
        -10.051111455698727
      ],
      [
        "ближ",
        -10.051134850743123
      ],
      [
        "привет",
        -10.051529093965136
      ],
      [
        "высказал",
        -10.051747484527942
      ],
      [
        "вызов",
        -10.052016892933118
      ],
      [
        "массово",
        -10.052435825987798
      ],
      [
        "возвращени",
        -10.05344938491032
      ],
      [
        "видим",
        -10.053452560635307
      ],
      [
        "отправля",
        -10.053524746285127
      ],
      [
        "отреагировал",
        -10.05372896669451
      ],
      [
        "осужден",
        -10.053901561263308
      ],
      [
        "доб",
        -10.05409417856407
      ],
      [
        "впечатлени",
        -10.054186206337002
      ],
      [
        "позволил",
        -10.054268483111308
      ],
      [
        "вызва",
        -10.054689696165529
      ],
      [
        "авиться",
        -10.054826787152434
      ],
      [
        "проигра",
        -10.0549147473146
      ],
      [
        "собирал",
        -10.05499374591289
      ],
      [
        "голосу",
        -10.055007751866691
      ],
      [
        "ала",
        -10.055342115945624
      ],
      [
        "запрещен",
        -10.055483877933876
      ],
      [
        "добави",
        -10.055560349294408
      ],
      [
        "ост",
        -10.055972596950138
      ],
      [
        "вмоскве",
        -10.056036476752311
      ],
      [
        "некоторо",
        -10.056070610437288
      ],
      [
        "конкурент",
        -10.05625622735906
      ],
      [
        "оказывают",
        -10.056353727591723
      ],
      [
        "сбер",
        -10.056398365967162
      ],
      [
        "есса",
        -10.056492543759123
      ],
      [
        "максимальн",
        -10.056710947694471
      ],
      [
        "зумерски",
        -10.056965661603405
      ],
      [
        "онент",
        -10.0574165119756
      ],
      [
        "берег",
        -10.057632420499717
      ],
      [
        "пришл",
        -10.057740774387874
      ],
      [
        "сесси",
        -10.057979549104711
      ],
      [
        "супруга",
        -10.05808128708142
      ],
      [
        "зумер",
        -10.058369634563244
      ],
      [
        "уч",
        -10.0584367891124
      ],
      [
        "полномочия",
        -10.060002448401772
      ],
      [
        "тву",
        -10.060236840767894
      ],
      [
        "море",
        -10.060473050367284
      ],
      [
        "напомина",
        -10.06105106119615
      ],
      [
        "способны",
        -10.06193514067134
      ],
      [
        "надежд",
        -10.062077510122862
      ],
      [
        "мошеннически",
        -10.062223254131585
      ],
      [
        "композици",
        -10.062321371103742
      ],
      [
        "республиканско",
        -10.062687927137455
      ],
      [
        "куш",
        -10.063035601042024
      ],
      [
        "печеньк",
        -10.063187262743275
      ],
      [
        "происходил",
        -10.063539077338431
      ],
      [
        "появля",
        -10.06405669467648
      ],
      [
        "жених",
        -10.064098425356216
      ],
      [
        "эко",
        -10.064336435203124
      ],
      [
        "разуме",
        -10.06444582157101
      ],
      [
        "ценност",
        -10.064536435131467
      ],
      [
        "това",
        -10.064724440555164
      ],
      [
        "ъезд",
        -10.065389980366785
      ],
      [
        "некое",
        -10.065505230246243
      ],
      [
        "расширя",
        -10.065711311023753
      ],
      [
        "ждения",
        -10.065874227450625
      ],
      [
        "алова",
        -10.066367948584292
      ],
      [
        "потеря",
        -10.066439563056914
      ],
      [
        "выступ",
        -10.0678305141604
      ],
      [
        "комисси",
        -10.068454606190231
      ],
      [
        "яется",
        -10.069164199849954
      ],
      [
        "питани",
        -10.06928871860642
      ],
      [
        "кем",
        -10.069849444455867
      ],
      [
        "данн",
        -10.070006530760343
      ],
      [
        "гостя",
        -10.070056203694929
      ],
      [
        "ожидае",
        -10.070069593622025
      ],
      [
        "открыл",
        -10.070580371793849
      ],
      [
        "кончал",
        -10.070960349354156
      ],
      [
        "объединя",
        -10.071001743242888
      ],
      [
        "характер",
        -10.07172941154582
      ],
      [
        "философи",
        -10.071943146137752
      ],
      [
        "улу",
        -10.072007893810223
      ],
      [
        "гани",
        -10.072098867943309
      ],
      [
        "задержа",
        -10.072145884474496
      ],
      [
        "главн",
        -10.072152101831447
      ],
      [
        "обменял",
        -10.07263813575921
      ],
      [
        "вали",
        -10.073050614361804
      ],
      [
        "тел",
        -10.073852729088408
      ],
      [
        "ству",
        -10.073961232711405
      ],
      [
        "скорост",
        -10.074333323743558
      ],
      [
        "играл",
        -10.07470336964222
      ],
      [
        "виды",
        -10.074985580043878
      ],
      [
        "уэлл",
        -10.07599493572102
      ],
      [
        "бойц",
        -10.076929457030216
      ],
      [
        "поставил",
        -10.077164905844525
      ],
      [
        "производ",
        -10.077355028954928
      ],
      [
        "рыва",
        -10.078592879384296
      ],
      [
        "содержани",
        -10.07889671521808
      ],
      [
        "южно",
        -10.079004493128735
      ],
      [
        "спас",
        -10.079121306758962
      ],
      [
        "портал",
        -10.079468716211997
      ],
      [
        "собирает",
        -10.080157165970158
      ],
      [
        "стороннико",
        -10.080654173337372
      ],
      [
        "лько",
        -10.080924300351434
      ],
      [
        "съемка",
        -10.081079311119002
      ],
      [
        "называ",
        -10.08117415759302
      ],
      [
        "нцерт",
        -10.08123924752162
      ],
      [
        "негативны",
        -10.081631832872482
      ],
      [
        "помо",
        -10.082628546350058
      ],
      [
        "лок",
        -10.083351875183563
      ],
      [
        "нарко",
        -10.084033651909277
      ],
      [
        "палестино",
        -10.0843891123773
      ],
      [
        "посту",
        -10.085511389128254
      ],
      [
        "украинывладимир",
        -10.08673570873356
      ],
      [
        "ельно",
        -10.087540267475438
      ],
      [
        "сме",
        -10.087771750535405
      ],
      [
        "запустил",
        -10.088278622172709
      ],
      [
        "боль",
        -10.088691130356596
      ],
      [
        "очередно",
        -10.088704688435364
      ],
      [
        "итар",
        -10.090615024232394
      ],
      [
        "близки",
        -10.090894902532774
      ],
      [
        "мессе",
        -10.090909693626704
      ],
      [
        "джа",
        -10.091061602413264
      ],
      [
        "ужас",
        -10.092078447709632
      ],
      [
        "этом",
        -10.092257729746215
      ],
      [
        "действующи",
        -10.092545492475184
      ],
      [
        "ложил",
        -10.093037273286392
      ],
      [
        "отдельно",
        -10.093514763869758
      ],
      [
        "аренду",
        -10.093663566882418
      ],
      [
        "рабочи",
        -10.0939686232767
      ],
      [
        "казывает",
        -10.094005034980253
      ],
      [
        "регионально",
        -10.095922796801611
      ],
      [
        "секрет",
        -10.096201507118725
      ],
      [
        "ским",
        -10.096264137280322
      ],
      [
        "содержащи",
        -10.0966041235288
      ],
      [
        "показал",
        -10.096975979304258
      ],
      [
        "разн",
        -10.097189517828676
      ],
      [
        "баян",
        -10.097194000634511
      ],
      [
        "магистральны",
        -10.097197059966469
      ],
      [
        "санд",
        -10.097350392995718
      ],
      [
        "составля",
        -10.098253454495792
      ],
      [
        "израильски",
        -10.099292654874994
      ],
      [
        "способн",
        -10.100018282876889
      ],
      [
        "возникл",
        -10.10008590417156
      ],
      [
        "гостини",
        -10.100157164707952
      ],
      [
        "ания",
        -10.100302802598256
      ],
      [
        "важ",
        -10.100396981009396
      ],
      [
        "детств",
        -10.10059196509999
      ],
      [
        "no",
        -10.101129616451855
      ],
      [
        "агрессивны",
        -10.102098530948826
      ],
      [
        "усилени",
        -10.103133433210376
      ],
      [
        "повер",
        -10.103164969745944
      ],
      [
        "api",
        -10.103224946253183
      ],
      [
        "учить",
        -10.10333084908892
      ],
      [
        "ори",
        -10.10406398048727
      ],
      [
        "разработал",
        -10.104164801849697
      ],
      [
        "останов",
        -10.10445912853216
      ],
      [
        "мега",
        -10.104863475544828
      ],
      [
        "сло",
        -10.105164877540616
      ],
      [
        "достигает",
        -10.105204114142968
      ],
      [
        "проектирован",
        -10.105835832169886
      ],
      [
        "газой",
        -10.105998163851776
      ],
      [
        "обещал",
        -10.106008051901764
      ],
      [
        "велики",
        -10.106017075374924
      ],
      [
        "силу",
        -10.106925715210094
      ],
      [
        "бед",
        -10.107217820904058
      ],
      [
        "ольг",
        -10.108664693180248
      ],
      [
        "овощ",
        -10.108949831231769
      ],
      [
        "повторит",
        -10.109262247727198
      ],
      [
        "fre",
        -10.109916300424336
      ],
      [
        "согласи",
        -10.11058764759003
      ],
      [
        "традиционно",
        -10.110737206824032
      ],
      [
        "проводил",
        -10.113170068338874
      ],
      [
        "постанов",
        -10.11351525310131
      ],
      [
        "подписани",
        -10.113589196811038
      ],
      [
        "обеспечи",
        -10.114250615699422
      ],
      [
        "юще",
        -10.114369218013223
      ],
      [
        "деревн",
        -10.116115332596584
      ],
      [
        "размер",
        -10.116768471440524
      ],
      [
        "граф",
        -10.116923319116475
      ],
      [
        "уббо",
        -10.11708494771139
      ],
      [
        "молоды",
        -10.117182671289244
      ],
      [
        "строить",
        -10.11719179962574
      ],
      [
        "турецком",
        -10.117289102879884
      ],
      [
        "введение",
        -10.118420751845688
      ],
      [
        "ицына",
        -10.118549324281094
      ],
      [
        "аб",
        -10.118775754585972
      ],
      [
        "davi",
        -10.118917246722017
      ],
      [
        "делий",
        -10.11903475008932
      ],
      [
        "изаци",
        -10.11943314612918
      ],
      [
        "обратил",
        -10.119477421887408
      ],
      [
        "отц",
        -10.120051133337917
      ],
      [
        "комментарие",
        -10.120227554043897
      ],
      [
        "передал",
        -10.120372007198592
      ],
      [
        "десятилети",
        -10.120661350095563
      ],
      [
        "aw",
        -10.120869774225184
      ],
      [
        "гул",
        -10.121125109591109
      ],
      [
        "кров",
        -10.121757589032594
      ],
      [
        "чел",
        -10.121947387099835
      ],
      [
        "енко",
        -10.122545985810032
      ],
      [
        "хождени",
        -10.122834840532011
      ],
      [
        "fir",
        -10.12352977945956
      ],
      [
        "контейнерны",
        -10.123953464661538
      ],
      [
        "коммунистк",
        -10.12426379965748
      ],
      [
        "кор",
        -10.124366311783469
      ],
      [
        "бере",
        -10.125127398422618
      ],
      [
        "остави",
        -10.12657507646421
      ],
      [
        "понимает",
        -10.12672486033708
      ],
      [
        "ree",
        -10.127730981934048
      ],
      [
        "контроле",
        -10.12838576657719
      ],
      [
        "обвин",
        -10.128424943125344
      ],
      [
        "предоставляет",
        -10.129113541899862
      ],
      [
        "сетя",
        -10.130290771933964
      ],
      [
        "певица",
        -10.130345917520728
      ],
      [
        "любимы",
        -10.13064035417067
      ],
      [
        "бег",
        -10.13093688098892
      ],
      [
        "жите",
        -10.131349381019922
      ],
      [
        "вают",
        -10.13150560571265
      ],
      [
        "разниц",
        -10.13163693491975
      ],
      [
        "фион",
        -10.132231132483184
      ],
      [
        "обсужда",
        -10.1355695867133
      ],
      [
        "регулятор",
        -10.135788651745369
      ],
      [
        "мери",
        -10.1367810505333
      ],
      [
        "мошенник",
        -10.137858723899374
      ],
      [
        "смотре",
        -10.13898142912354
      ],
      [
        "летел",
        -10.139139821472034
      ],
      [
        "тепло",
        -10.139743614236265
      ],
      [
        "случа",
        -10.140237836528662
      ],
      [
        "вызыва",
        -10.140337972146476
      ],
      [
        "происходит",
        -10.140553033987324
      ],
      [
        "шин",
        -10.141084175901918
      ],
      [
        "пос",
        -10.141634133214785
      ],
      [
        "добро",
        -10.142027569188382
      ],
      [
        "принято",
        -10.142127452900851
      ],
      [
        "вет",
        -10.14249823311238
      ],
      [
[...]
